<unk>	0
<s>	0
</s>	0
▁the	-3.08589
,	-3.14042
.	-3.31815
▁	-3.41668
▁of	-3.68586
▁and	-3.8406
1	-3.90472
▁in	-3.97685
0	-4.14702
▁to	-4.19373
▁a	-4.20947
2	-4.32326
s	-4.44313
9	-4.51196
▁was	-4.66869
-	-4.77741
▁The	-4.91469
▁is	-5.00801
'	-5.06206
8	-5.09602
▁for	-5.09988
▁(	-5.15223
▁on	-5.1887
▁as	-5.19612
▁with	-5.24989
3	-5.25723
▁by	-5.26461
5	-5.26991
4	-5.33339
6	-5.35021
7	-5.3551
▁that	-5.46267
▁at	-5.56931
▁from	-5.56966
)	-5.65012
▁"	-5.66371
▁his	-5.70815
▁In	-5.78362
▁an	-5.89065
▁he	-5.90468
▁were	-5.98885
▁which	-6.1196
▁it	-6.17218
▁are	-6.18611
"	-6.18695
▁He	-6.21979
▁had	-6.30237
▁be	-6.31333
▁also	-6.33931
▁first	-6.41642
▁has	-6.41869
▁or	-6.42134
:	-6.43798
▁their	-6.52492
▁It	-6.54709
▁who	-6.6018
–	-6.61429
▁its	-6.61737
▁her	-6.64033
▁but	-6.64889
▁one	-6.65247
▁not	-6.65581
),	-6.69809
▁A	-6.71542
▁two	-6.74075
▁have	-6.74344
▁this	-6.77934
;	-6.80067
▁been	-6.80073
▁after	-6.89574
).	-6.95811
th	-6.98034
▁other	-6.99521
▁they	-6.99902
▁into	-7.03167
▁time	-7.05658
▁she	-7.06916
%	-7.13188
▁On	-7.13776
a	-7.13927
▁would	-7.16069
▁all	-7.16221
▁New	-7.19361
▁more	-7.19761
▁over	-7.19794
▁when	-7.20467
▁years	-7.23399
▁during	-7.2427
ing	-7.27051
▁This	-7.28413
▁new	-7.28852
▁where	-7.28856
▁between	-7.29961
e	-7.30422
▁only	-7.31703
▁three	-7.34423
▁up	-7.34499
▁made	-7.3562
▁him	-7.36256
▁out	-7.37395
▁||	-7.37465
▁later	-7.39366
▁used	-7.40091
▁can	-7.40502
▁She	-7.41018
▁season	-7.41637
▁about	-7.41914
▁part	-7.42574
▁such	-7.42982
▁United	-7.43316
▁under	-7.4332
▁most	-7.44109
▁then	-7.44133
▁became	-7.44529
▁known	-7.4573
/	-7.47272
▁American	-7.47317
▁University	-7.47744
▁being	-7.49247
▁than	-7.49459
".	-7.49667
▁film	-7.50551
▁I	-7.51363
▁team	-7.51762
▁year	-7.51871
▁there	-7.52496
▁–	-7.52969
▁including	-7.53144
▁well	-7.54408
▁second	-7.5451
▁against	-7.56722
▁some	-7.57445
▁through	-7.58245
."	-7.58981
t	-7.59233
▁while	-7.60533
▁After	-7.6185
▁before	-7.6237
▁until	-7.65754
▁them	-7.65873
▁many	-7.66204
▁both	-7.66657
S	-7.67868
▁de	-7.67938
▁work	-7.6811
▁people	-7.6842
ed	-7.68787
▁released	-7.71348
▁family	-7.71748
▁album	-7.71753
▁National	-7.7187
▁States	-7.73534
▁World	-7.7405
▁As	-7.74228
▁name	-7.74768
▁played	-7.75422
▁number	-7.75795
▁May	-7.76129
▁no	-7.76441
▁series	-7.76473
▁area	-7.77091
▁won	-7.79128
",	-7.79852
▁four	-7.80248
i	-7.81077
▁September	-7.82102
▁called	-7.82152
▁June	-7.82751
▁school	-7.83011
▁March	-7.83109
▁same	-7.83457
▁city	-7.83521
▁July	-7.84197
▁October	-7.8457
▁August	-7.85898
▁January	-7.862
▁U	-7.86518
▁several	-7.86706
▁game	-7.8703
y	-7.8778
in	-7.88416
▁early	-7.88661
n	-7.89336
▁April	-7.89612
▁began	-7.90066
▁state	-7.90908
▁found	-7.90941
▁They	-7.91168
▁At	-7.91316
▁will	-7.92313
▁South	-7.92833
▁John	-7.929
▁November	-7.93306
▁these	-7.93467
▁since	-7.9358
▁following	-7.93717
▁His	-7.94308
▁December	-7.94447
▁group	-7.96125
▁so	-7.96954
▁held	-7.98551
▁use	-7.98626
d	-7.98863
▁York	-7.99021
▁School	-7.99192
▁population	-7.99596
▁former	-7.99734
▁War	-8.00077
▁government	-8.00203
▁may	-8.00927
▁place	-8.01726
▁end	-8.01823
▁located	-8.02781
▁took	-8.03148
▁each	-8.03179
▁named	-8.03622
▁member	-8.03805
▁County	-8.03839
o	-8.04006
▁age	-8.04605
▁British	-8.0499
▁February	-8.05532
er	-8.0566
▁served	-8.06132
▁music	-8.06153
▁$	-8.06303
▁There	-8.06439
▁company	-8.07114
▁home	-8.07417
▁high	-8.07693
▁However	-8.07955
▁City	-8.09035
▁received	-8.09614
▁did	-8.10137
▁around	-8.10602
▁could	-8.1075
▁any	-8.11761
▁back	-8.12998
the	-8.13485
▁due	-8.14023
▁single	-8.14358
▁St	-8.15097
▁said	-8.15229
▁League	-8.15329
▁built	-8.15627
▁local	-8.15925
▁town	-8.15943
▁During	-8.1604
▁State	-8.162
▁North	-8.16756
▁station	-8.17276
▁based	-8.17305
▁born	-8.17692
▁song	-8.17786
▁system	-8.18116
▁public	-8.18124
▁left	-8.18827
▁along	-8.19437
▁century	-8.2006
▁club	-8.20373
A	-8.20516
▁published	-8.20578
▁&	-8.20728
▁within	-8.20984
ly	-8.21101
▁For	-8.2112
’	-8.21811
▁long	-8.21883
▁band	-8.21899
▁five	-8.22634
▁members	-8.23233
▁building	-8.23329
born	-8.2346
▁now	-8.23531
▁because	-8.23876
▁B	-8.23959
▁included	-8.23984
▁village	-8.243
▁line	-8.2437
▁final	-8.24582
▁third	-8.2497
▁large	-8.25125
▁set	-8.25178
▁show	-8.2619
m	-8.26802
▁own	-8.26825
▁day	-8.26849
▁C	-8.27275
▁world	-8.2853
▁include	-8.28903
▁died	-8.29467
▁those	-8.30492
▁life	-8.30545
▁small	-8.31002
▁last	-8.3111
▁children	-8.31312
▁species	-8.31618
▁S	-8.32374
▁million	-8.32698
▁French	-8.32725
▁death	-8.32898
▁like	-8.33472
▁main	-8.33739
▁led	-8.34189
▁moved	-8.3436
▁national	-8.34689
The	-8.34952
▁women	-8.36114
▁English	-8.3613
▁still	-8.36505
▁play	-8.36524
▁London	-8.36886
▁major	-8.3763
▁another	-8.377
▁career	-8.37863
▁if	-8.38072
▁announced	-8.38168
▁son	-8.39405
▁West	-8.39967
▁College	-8.3998
▁off	-8.40144
▁District	-8.40156
▁German	-8.40351
▁near	-8.40752
▁book	-8.40828
▁father	-8.41445
▁often	-8.41619
▁M	-8.41687
▁form	-8.41747
▁original	-8.41812
▁side	-8.41877
▁different	-8.42088
▁D	-8.42334
▁very	-8.42396
▁service	-8.42664
▁role	-8.43266
▁men	-8.43491
▁title	-8.44135
▁north	-8.44376
▁late	-8.44531
C	-8.44972
▁down	-8.44976
▁again	-8.45219
▁district	-8.45358
▁II	-8.45475
▁record	-8.45526
▁best	-8.46486
▁When	-8.46789
▁established	-8.46915
▁games	-8.47255
▁support	-8.47955
▁water	-8.48282
▁started	-8.48644
▁went	-8.48828
▁House	-8.48944
▁River	-8.48988
▁history	-8.49275
▁six	-8.49395
▁top	-8.49398
▁country	-8.49488
▁period	-8.49495
▁make	-8.50013
▁All	-8.50305
▁south	-8.50807
▁non	-8.5087
▁worked	-8.51018
▁came	-8.5133
▁Cup	-8.51508
▁what	-8.51879
▁order	-8.51972
I	-8.52021
▁much	-8.52067
▁become	-8.52124
▁One	-8.52226
▁among	-8.52242
▁described	-8.52454
▁just	-8.52921
▁married	-8.53349
an	-8.53694
▁house	-8.53762
▁No	-8.54227
▁joined	-8.54319
▁war	-8.54557
▁do	-8.54593
▁having	-8.5463
▁various	-8.55055
▁player	-8.5507
▁total	-8.55252
▁wrote	-8.559
▁next	-8.56098
▁football	-8.56291
▁re	-8.56815
▁England	-8.57156
▁election	-8.57349
▁International	-8.57466
▁using	-8.5753
▁O	-8.57725
▁US	-8.5809
▁E	-8.58287
▁returned	-8.58306
▁given	-8.58523
▁head	-8.58734
al	-8.58776
▁community	-8.58842
▁San	-8.59102
▁land	-8.59299
▁general	-8.5945
▁created	-8.5947
▁produced	-8.59541
▁way	-8.60256
▁power	-8.60269
▁These	-8.60341
▁development	-8.60673
▁By	-8.60876
▁Park	-8.60967
▁political	-8.61105
▁According	-8.61627
▁Party	-8.61944
▁From	-8.62263
▁continued	-8.62856
▁even	-8.62894
▁take	-8.63169
to	-8.63259
▁production	-8.63352
▁East	-8.6359
st	-8.64157
▁law	-8.64214
▁R	-8.64364
▁Street	-8.64387
r	-8.64507
▁Army	-8.64726
▁win	-8.6506
—	-8.65282
▁position	-8.65845
▁co	-8.65915
▁site	-8.66199
▁event	-8.66235
▁few	-8.66242
▁G	-8.66253
▁William	-8.66343
▁J	-8.66675
▁An	-8.66791
▁written	-8.66794
man	-8.66795
▁European	-8.66988
es	-8.67178
▁military	-8.6723
▁T	-8.67622
▁students	-8.67767
▁church	-8.67774
▁King	-8.67819
▁however	-8.68057
▁version	-8.68099
▁Council	-8.68215
▁Australia	-8.6845
▁India	-8.68482
▁without	-8.68607
year	-8.68674
▁region	-8.69246
▁television	-8.6935
▁match	-8.69501
▁per	-8.69689
on	-8.70267
or	-8.70347
▁lost	-8.70892
▁party	-8.70959
▁Church	-8.71193
▁France	-8.71217
▁considered	-8.71228
▁short	-8.71456
▁debut	-8.71877
▁days	-8.71905
▁signed	-8.71924
▁together	-8.71988
D	-8.72153
▁appointed	-8.72474
▁opened	-8.72535
▁P	-8.72536
▁George	-8.72787
▁full	-8.7281
▁F	-8.73047
▁recorded	-8.73198
▁elected	-8.7352
▁works	-8.73621
▁further	-8.74139
▁founded	-8.74184
en	-8.74235
▁James	-8.74347
▁old	-8.74397
▁international	-8.74403
▁General	-8.74443
▁round	-8.74973
▁President	-8.74982
▁professional	-8.74997
▁run	-8.75084
▁Division	-8.75312
▁program	-8.75839
▁right	-8.75916
▁point	-8.76136
▁California	-8.7614
▁America	-8.76307
▁times	-8.76865
▁High	-8.77015
▁wife	-8.77058
▁result	-8.77065
▁K	-8.7718
▁every	-8.77322
▁While	-8.77924
▁appeared	-8.78064
▁present	-8.78291
▁L	-8.78383
▁lead	-8.78488
▁research	-8.78729
▁Canada	-8.78838
▁making	-8.79085
▁release	-8.79126
▁average	-8.79375
▁working	-8.79542
▁Association	-8.7968
▁addition	-8.79985
▁half	-8.802
▁level	-8.80244
▁formed	-8.8037
▁living	-8.80559
▁points	-8.80639
▁director	-8.80764
▁important	-8.80835
g	-8.8124
▁Royal	-8.81501
B	-8.81536
▁race	-8.82244
▁control	-8.82262
▁developed	-8.82354
▁Award	-8.82477
▁Her	-8.82909
▁With	-8.83104
▁field	-8.8311
▁office	-8.83122
▁case	-8.83428
▁video	-8.83753
▁areas	-8.83962
▁example	-8.83986
▁H	-8.84173
▁Indian	-8.84238
▁similar	-8.84768
▁Union	-8.84829
▁across	-8.8502
▁Australian	-8.8506
▁president	-8.85776
▁design	-8.85783
▁teams	-8.85791
▁project	-8.86048
▁social	-8.86077
▁La	-8.86225
▁story	-8.86241
▁himself	-8.86479
▁east	-8.86686
▁To	-8.87214
▁business	-8.87619
l	-8.87659
▁west	-8.87723
▁art	-8.87873
▁sold	-8.88141
▁Act	-8.88211
▁although	-8.88329
▁character	-8.88374
▁daughter	-8.8883
]	-8.88898
▁gave	-8.89673
▁live	-8.89715
▁W	-8.89861
▁league	-8.89971
▁months	-8.90471
▁Germany	-8.90594
▁playing	-8.91295
▁others	-8.91335
▁Road	-8.91432
▁followed	-8.91471
▁Championship	-8.91516
▁David	-8.918
▁common	-8.91853
▁mother	-8.91939
▁events	-8.92198
▁how	-8.92271
▁popular	-8.92481
▁man	-8.92767
▁performed	-8.92876
▁Court	-8.92906
▁never	-8.93299
▁services	-8.933
▁body	-8.93339
▁finished	-8.93342
▁construction	-8.93424
▁Company	-8.93575
▁completed	-8.93766
▁education	-8.94064
▁Hall	-8.94237
▁Central	-8.94427
▁away	-8.94817
▁though	-8.94836
▁should	-8.94953
c	-8.95303
▁list	-8.9533
▁China	-8.95491
▁Some	-8.95563
▁()	-8.95909
re	-8.95992
▁remained	-8.95998
▁reported	-8.96133
▁“	-8.96177
▁language	-8.96347
▁taken	-8.96562
▁available	-8.96786
▁Air	-8.97198
▁term	-8.97212
▁seven	-8.97388
▁free	-8.97452
▁open	-8.97481
▁young	-8.97939
▁First	-8.97951
▁designed	-8.98037
▁N	-8.98198
▁post	-8.9843
▁coach	-8.98487
▁V	-8.98547
▁Europe	-8.9857
▁road	-8.98617
▁Center	-8.98676
▁track	-8.99403
us	-8.99524
▁return	-8.99633
▁does	-8.99645
▁study	-8.99681
▁official	-8.99749
▁once	-8.99794
▁largest	-8.999
▁process	-8.99955
▁featured	-9
▁less	-9.00304
▁Department	-9.00538
▁Japan	-9.00593
and	-9.00708
▁Robert	-9.00765
▁help	-9.0083
▁Thomas	-9.01085
▁|	-9.01127
▁directed	-9.01271
▁African	-9.01275
▁sent	-9.01461
▁episode	-9.01582
▁throughout	-9.01729
▁leading	-9.01817
▁Although	-9.01821
▁style	-9.01921
▁Minister	-9.02042
▁UK	-9.02101
▁stated	-9.02147
▁Washington	-9.02339
▁we	-9.02357
▁modern	-9.02386
▁forces	-9.0255
▁Russian	-9.02573
▁Since	-9.02594
▁originally	-9.02699
▁brother	-9.02975
▁awarded	-9.032
▁Society	-9.03286
▁features	-9.03403
▁Paul	-9.03473
▁performance	-9.03484
▁great	-9.03629
▁players	-9.03699
▁Institute	-9.03771
▁stage	-9.03912
▁Group	-9.04081
up	-9.0412
▁Japanese	-9.04158
▁you	-9.04338
▁added	-9.04348
▁involved	-9.04441
▁songs	-9.04469
nd	-9.04591
▁police	-9.04659
▁eight	-9.04708
▁Charles	-9.04821
▁Western	-9.05053
▁killed	-9.05062
▁replaced	-9.05208
▁seen	-9.0535
▁eventually	-9.0539
▁training	-9.05488
▁includes	-9.05603
▁current	-9.05709
▁Chinese	-9.05783
▁low	-9.06259
▁Canadian	-9.06263
▁white	-9.06442
▁competition	-9.06469
▁previous	-9.06593
▁Club	-9.06595
▁Island	-9.06736
k	-9.0708
▁black	-9.07606
▁Music	-9.0765
▁able	-9.0773
▁car	-9.08002
▁contract	-9.08142
u	-9.08177
▁must	-9.08486
▁provided	-9.08623
▁special	-9.08688
▁fourth	-9.08698
▁reached	-9.08791
▁human	-9.08958
▁groups	-9.09301
▁countries	-9.09408
▁close	-9.09446
▁good	-9.09496
▁tournament	-9.09755
▁census	-9.09947
▁families	-9.10091
▁TV	-9.10102
▁either	-9.10119
▁Art	-9.10178
▁degree	-9.10435
▁radio	-9.10687
▁go	-9.10736
▁least	-9.10981
▁Al	-9.11047
▁White	-9.11059
▁information	-9.11357
▁placed	-9.1163
▁court	-9.11883
▁private	-9.11992
▁Academy	-9.12097
▁air	-9.12239
M	-9.12433
▁campaign	-9.12769
▁range	-9.12787
▁[	-9.12931
▁female	-9.13137
▁change	-9.13441
▁attack	-9.13525
▁front	-9.13551
▁introduced	-9.13908
▁size	-9.13982
▁studio	-9.13998
▁upon	-9.14007
▁above	-9.1447
▁Africa	-9.14505
▁saw	-9.1504
▁get	-9.15237
▁usually	-9.1528
▁college	-9.1545
▁Great	-9.15469
▁Italian	-9.1557
▁class	-9.15617
▁rights	-9.15959
▁schools	-9.16166
▁scored	-9.16305
▁via	-9.16409
▁goal	-9.16411
▁Following	-9.16621
▁attended	-9.16781
▁instead	-9.16783
▁currently	-9.16785
▁Michael	-9.16858
h	-9.16898
▁fire	-9.16953
▁Black	-9.17021
▁central	-9.17278
▁Spanish	-9.1732
▁start	-9.17352
▁decided	-9.1752
▁De	-9.17579
▁mid	-9.17704
▁previously	-9.17759
▁light	-9.17818
E	-9.17958
▁Museum	-9.17962
▁Lake	-9.18414
▁put	-9.1843
▁shows	-9.18647
▁Republic	-9.18802
▁provide	-9.18844
▁ten	-9.18999
▁center	-9.19018
▁Best	-9.19103
▁novel	-9.19294
▁success	-9.19509
▁ground	-9.197
▁Los	-9.19786
▁Henry	-9.19803
▁aircraft	-9.20011
▁Paris	-9.20076
▁states	-9.20127
time	-9.20181
▁Kingdom	-9.20595
▁model	-9.20681
▁behind	-9.20757
▁media	-9.20817
▁space	-9.20919
▁Red	-9.2103
▁section	-9.21172
▁brought	-9.21445
▁listed	-9.21487
▁km	-9.21575
as	-9.21676
▁winning	-9.21688
▁Its	-9.22008
▁outside	-9.22375
▁rather	-9.22377
based	-9.22468
▁health	-9.22475
▁represented	-9.22571
rd	-9.22674
▁whose	-9.23047
▁Two	-9.23056
▁data	-9.23067
▁successful	-9.23213
▁active	-9.23632
▁action	-9.23715
▁possible	-9.2374
▁ended	-9.23953
▁Bay	-9.24125
▁movement	-9.24311
▁buildings	-9.24346
▁Committee	-9.24426
▁changed	-9.24516
▁Mary	-9.24633
▁significant	-9.24671
▁rock	-9.24736
▁writing	-9.24904
▁allowed	-9.24926
▁defeated	-9.24964
ers	-9.25019
▁Other	-9.25387
▁leader	-9.25625
▁Christian	-9.25878
▁units	-9.26037
▁met	-9.2614
▁almost	-9.26252
▁Grand	-9.26358
▁ship	-9.265
▁person	-9.26591
▁Roman	-9.26609
▁division	-9.26887
▁river	-9.27143
▁Peter	-9.27334
▁county	-9.27562
▁board	-9.27867
▁Zealand	-9.28069
▁force	-9.28264
▁films	-9.28268
▁Texas	-9.28584
▁beginning	-9.28687
▁artist	-9.28803
▁organization	-9.28993
▁capital	-9.29158
▁night	-9.29171
▁island	-9.293
▁older	-9.29303
▁interest	-9.29494
▁itself	-9.29703
▁Government	-9.29724
▁Soviet	-9.29875
▁spent	-9.29942
▁whom	-9.29981
ia	-9.3
▁especially	-9.30095
▁southern	-9.30135
na	-9.30139
▁taking	-9.3021
▁approximately	-9.30212
▁Women	-9.30461
▁type	-9.30515
▁runs	-9.30522
▁railway	-9.30533
▁primary	-9.30627
▁week	-9.30701
▁Festival	-9.30711
▁towards	-9.30767
▁market	-9.30779
▁parts	-9.30824
▁regular	-9.30926
▁owned	-9.30994
is	-9.3104
▁collection	-9.31161
▁hit	-9.31173
▁below	-9.3143
▁northern	-9.31438
▁army	-9.31688
▁little	-9.31704
▁Catholic	-9.31806
▁industry	-9.31821
▁income	-9.31823
▁Smith	-9.32144
▁independent	-9.32159
▁summer	-9.32249
▁see	-9.32253
▁lower	-9.32305
▁Film	-9.3242
▁Dr	-9.32569
▁noted	-9.32589
b	-9.32599
▁tour	-9.32696
▁far	-9.3278
▁Man	-9.32832
P	-9.32896
▁money	-9.33123
▁Chicago	-9.33215
▁Hill	-9.3327
▁Richard	-9.3345
▁Football	-9.335
▁launched	-9.33568
▁Ireland	-9.33616
▁network	-9.33678
▁structure	-9.33679
▁closed	-9.33688
▁magazine	-9.3381
▁higher	-9.34027
▁Most	-9.34094
▁base	-9.34144
▁Records	-9.34198
▁opening	-9.34328
▁lived	-9.3444
▁according	-9.34441
T	-9.34467
▁soon	-9.34518
z	-9.34531
▁future	-9.34588
|	-9.35044
▁operations	-9.35087
▁required	-9.35277
▁books	-9.35417
▁Force	-9.35627
▁practice	-9.35643
▁woman	-9.3568
▁Saint	-9.35691
▁centre	-9.35697
▁studies	-9.35776
▁highest	-9.35837
▁Angeles	-9.35868
▁ever	-9.36195
▁traditional	-9.36213
▁child	-9.36259
▁plays	-9.363
▁Sir	-9.36359
▁strong	-9.36658
▁too	-9.36686
▁earlier	-9.36746
▁means	-9.36757
▁studied	-9.36787
▁entered	-9.36953
▁already	-9.3699
▁al	-9.37003
▁ran	-9.37031
▁find	-9.37065
▁becoming	-9.37076
▁location	-9.37083
▁Arts	-9.37154
▁Many	-9.37171
▁come	-9.37215
▁senior	-9.37327
▁anti	-9.37433
R	-9.37481
▁gold	-9.37582
▁edition	-9.37766
▁increased	-9.37849
le	-9.37991
▁individual	-9.37998
▁route	-9.38088
▁generally	-9.38094
▁writer	-9.38201
▁rest	-9.38203
▁hand	-9.38299
▁sometimes	-9.38355
▁initially	-9.38451
▁date	-9.38455
▁decision	-9.38523
▁companies	-9.38654
▁households	-9.38876
▁selected	-9.38971
▁appearance	-9.39046
▁commercial	-9.39112
▁thus	-9.3923
(	-9.39301
ic	-9.39466
▁property	-9.39524
▁related	-9.39551
▁singer	-9.39553
▁majority	-9.39878
▁additional	-9.3996
▁numerous	-9.40232
▁victory	-9.40319
▁running	-9.40455
▁issues	-9.40617
▁systems	-9.40696
▁husband	-9.40705
▁real	-9.40717
▁Italy	-9.40921
▁loss	-9.41092
▁move	-9.41129
▁matches	-9.41175
▁Navy	-9.41185
▁self	-9.41309
▁pre	-9.41467
▁thought	-9.41601
▁officer	-9.42038
▁access	-9.42055
▁annual	-9.42061
▁award	-9.42098
▁plant	-9.42139
▁supported	-9.42236
▁Later	-9.42302
▁author	-9.42405
▁caused	-9.42412
▁seat	-9.42419
▁trade	-9.42459
▁better	-9.42564
▁Mexico	-9.42564
▁wide	-9.42717
▁food	-9.42787
▁associated	-9.42799
▁operated	-9.42868
▁artists	-9.43002
▁manager	-9.43201
▁claimed	-9.43228
▁score	-9.43328
▁course	-9.434
▁student	-9.43469
G	-9.43499
▁terms	-9.43834
▁past	-9.43962
▁Parliament	-9.44118
ton	-9.44144
▁create	-9.44157
▁X	-9.44198
▁park	-9.44329
▁Russia	-9.44343
▁Summer	-9.44405
▁passed	-9.4441
▁serving	-9.44431
▁Assembly	-9.44486
▁competed	-9.44525
▁Greek	-9.44695
▁Virginia	-9.44907
▁sea	-9.45227
▁("	-9.4525
▁forced	-9.45368
▁love	-9.45393
▁feature	-9.45609
▁evidence	-9.45626
▁cast	-9.45681
▁plan	-9.45709
▁Wales	-9.45729
▁Co	-9.45778
▁personal	-9.45872
▁Olympics	-9.45895
▁characters	-9.46087
▁western	-9.461
▁Battle	-9.4611
▁Day	-9.462
▁economic	-9.46204
▁report	-9.46219
▁entire	-9.46256
▁university	-9.46304
▁El	-9.46352
ta	-9.46365
▁unit	-9.4667
O	-9.46707
▁complete	-9.46807
de	-9.46807
▁Northern	-9.46872
▁Second	-9.46874
▁relationship	-9.46906
▁battle	-9.47158
▁contains	-9.47301
▁Board	-9.4732
▁standard	-9.47331
▁staff	-9.47366
▁limited	-9.47459
▁Le	-9.47636
K	-9.47657
▁particularly	-9.47779
▁culture	-9.47839
▁subsequently	-9.47843
▁fact	-9.4801
▁issue	-9.48078
▁religious	-9.48168
▁championship	-9.48242
▁mostly	-9.48341
▁nine	-9.48371
▁medical	-9.48418
▁Times	-9.48503
▁hours	-9.4856
▁Year	-9.48591
▁particular	-9.48598
▁cover	-9.486
▁presented	-9.48807
▁referred	-9.48915
▁earned	-9.48924
▁politician	-9.48959
▁Championships	-9.49127
▁Me	-9.49152
▁going	-9.49241
▁remains	-9.49265
▁activities	-9.49286
▁retired	-9.49322
▁material	-9.49399
▁turn	-9.49436
▁Despite	-9.49496
▁goals	-9.49579
▁Green	-9.49644
▁If	-9.49677
▁changes	-9.49778
▁natural	-9.49838
F	-9.49873
▁m	-9.49892
▁shot	-9.49905
▁Law	-9.49931
p	-9.50044
▁raised	-9.50344
▁vote	-9.50513
▁Irish	-9.50531
▁weeks	-9.50574
▁larger	-9.507
L	-9.50757
▁give	-9.50842
▁red	-9.50958
▁multiple	-9.51
▁failed	-9.51067
▁month	-9.51151
▁overall	-9.51162
▁Florida	-9.51188
▁Province	-9.51261
▁musical	-9.51307
▁word	-9.51341
▁minutes	-9.51437
▁legal	-9.51487
▁meeting	-9.51487
▁management	-9.51561
▁believed	-9.51577
day	-9.51577
▁You	-9.51682
▁Congress	-9.51753
▁longer	-9.51897
▁Their	-9.52157
▁engine	-9.5223
▁Awards	-9.52287
▁science	-9.52467
▁Pacific	-9.52539
▁themselves	-9.52568
")	-9.52578
el	-9.52802
▁Service	-9.52878
▁Games	-9.52893
▁deal	-9.52915
no	-9.52957
▁shown	-9.53047
▁length	-9.53049
”	-9.53101
▁helped	-9.53109
&	-9.53192
▁sister	-9.53205
▁cost	-9.53517
▁increase	-9.53639
▁Valley	-9.53728
▁room	-9.5376
▁Empire	-9.53783
▁certain	-9.53831
▁Joseph	-9.5391
▁troops	-9.53948
▁Southern	-9.53977
▁Historic	-9.54046
one	-9.54097
▁remaining	-9.54214
▁carried	-9.54217
▁Star	-9.54257
▁parents	-9.543
▁Town	-9.54316
▁Democratic	-9.54345
▁But	-9.54463
▁Commission	-9.54482
at	-9.54503
▁Martin	-9.54517
▁That	-9.54519
▁chief	-9.54789
▁complex	-9.54794
▁acquired	-9.55082
▁cases	-9.55416
▁subject	-9.55437
▁individuals	-9.55442
▁need	-9.55476
▁Spain	-9.55624
▁financial	-9.55694
▁lines	-9.55741
▁federal	-9.55772
▁leaving	-9.55921
▁latter	-9.56158
▁median	-9.56222
▁regional	-9.56254
▁policy	-9.56462
▁alongside	-9.56501
▁effect	-9.56522
▁energy	-9.56569
▁got	-9.56605
▁medal	-9.56643
▁Science	-9.56647
▁takes	-9.56658
▁Queen	-9.56953
▁results	-9.5696
);	-9.57042
▁eastern	-9.57045
▁Louis	-9.57101
▁promoted	-9.57155
▁offered	-9.57421
▁status	-9.57718
▁king	-9.57729
▁fight	-9.57831
▁Press	-9.57858
▁professor	-9.57998
▁starting	-9.58006
▁Jewish	-9.5805
▁my	-9.58135
▁separate	-9.58276
▁Britain	-9.58402
▁surface	-9.58447
▁proposed	-9.58458
▁composed	-9.58497
▁Old	-9.58543
▁experience	-9.58594
▁municipality	-9.58889
▁review	-9.58904
!	-9.5891
▁Lord	-9.58924
▁influence	-9.58929
▁Lee	-9.58986
▁prior	-9.59145
▁always	-9.59246
▁Both	-9.59251
▁civil	-9.59484
▁fifth	-9.59485
▁variety	-9.59644
▁despite	-9.59655
▁programs	-9.59688
▁society	-9.59745
▁marriage	-9.59755
▁Carolina	-9.59867
▁Mark	-9.5995
▁#	-9.60082
▁friend	-9.60158
▁Sea	-9.602
▁rate	-9.6033
▁recording	-9.60379
▁council	-9.60389
te	-9.60391
▁graduated	-9.60427
▁response	-9.60506
▁forms	-9.60558
▁Public	-9.6058
▁historical	-9.60639
▁producer	-9.60648
▁train	-9.60705
▁People	-9.60757
▁turned	-9.60817
▁broadcast	-9.60893
▁consists	-9.60927
▁Research	-9.60928
ism	-9.60928
▁saying	-9.60978
▁Conference	-9.61042
▁famous	-9.61057
▁mainly	-9.61074
▁middle	-9.61157
▁Railway	-9.61161
▁male	-9.61189
▁attempt	-9.61257
▁elections	-9.61517
▁God	-9.61687
land	-9.61765
▁sound	-9.61769
▁Edward	-9.61779
▁females	-9.61859
▁native	-9.61885
▁wanted	-9.62076
▁£	-9.62323
N	-9.62372
▁done	-9.6249
▁theory	-9.62502
ka	-9.62546
old	-9.62681
▁—	-9.62724
▁Brown	-9.62782
▁meaning	-9.62797
▁houses	-9.62827
▁source	-9.62872
▁told	-9.63028
▁responsible	-9.63055
▁conditions	-9.63067
▁Education	-9.63123
▁department	-9.63174
▁Under	-9.63277
▁extended	-9.63277
▁constructed	-9.63289
▁un	-9.633
▁nearby	-9.63483
▁issued	-9.63485
▁today	-9.63569
▁enough	-9.63635
▁likely	-9.63855
▁leave	-9.64018
▁province	-9.6404
▁movie	-9.64045
▁Radio	-9.64109
▁stations	-9.64156
▁asked	-9.64315
▁Poland	-9.64318
▁serve	-9.64343
▁foreign	-9.64405
▁might	-9.64472
▁face	-9.64477
▁cultural	-9.64531
▁genus	-9.64616
▁provides	-9.64675
▁primarily	-9.64746
▁act	-9.64747
▁transferred	-9.64779
▁tracks	-9.64804
▁our	-9.64877
▁cause	-9.65056
▁care	-9.65063
▁managed	-9.65071
la	-9.65127
▁Chief	-9.6519
▁Dutch	-9.65194
▁Line	-9.6529
▁nearly	-9.65322
▁allow	-9.65363
▁sports	-9.65396
▁elements	-9.65403
▁Eastern	-9.65562
▁recent	-9.65626
▁arrived	-9.65668
▁d	-9.65684
▁lack	-9.65815
▁III	-9.65865
▁operation	-9.65887
▁directly	-9.65955
▁appears	-9.66037
H	-9.66068
▁residents	-9.66122
▁administrative	-9.66221
▁names	-9.66262
▁command	-9.66303
▁Super	-9.66383
▁technology	-9.6645
▁uses	-9.66476
▁discovered	-9.66487
▁Prince	-9.66527
▁finally	-9.66568
▁Another	-9.66602
▁Asian	-9.67011
▁seasons	-9.67032
▁plans	-9.67088
of	-9.67271
▁Bank	-9.67321
▁key	-9.67468
▁Series	-9.67516
▁Republican	-9.67604
▁bridge	-9.67617
son	-9.67626
ne	-9.6766
▁specific	-9.67696
▁direct	-9.68026
▁Team	-9.68067
▁cities	-9.681
▁candidate	-9.68156
ley	-9.68162
▁Big	-9.68205
▁rural	-9.68272
▁nature	-9.68284
▁basketball	-9.68295
▁border	-9.68446
▁double	-9.68446
▁appearances	-9.68511
▁races	-9.68531
▁actor	-9.68628
▁levels	-9.6864
▁Theatre	-9.6868
▁Boston	-9.68764
▁participated	-9.68809
▁Latin	-9.68867
▁ships	-9.69041
▁officially	-9.69135
▁Order	-9.69163
▁whole	-9.69186
▁covered	-9.69366
▁revealed	-9.69512
▁whether	-9.69657
▁la	-9.69752
▁cross	-9.69805
▁me	-9.69825
▁newspaper	-9.70031
▁executive	-9.70194
▁problems	-9.70215
ar	-9.70243
▁Register	-9.7041
▁editor	-9.7043
▁call	-9.70489
▁Scotland	-9.70574
▁heavy	-9.7069
▁hospital	-9.70755
▁Centre	-9.70866
▁renamed	-9.70898
▁Senate	-9.70977
▁grew	-9.71041
▁soldiers	-9.71058
▁records	-9.71159
able	-9.71201
▁My	-9.71311
▁oil	-9.71371
▁host	-9.71572
▁BBC	-9.71595
▁produce	-9.71658
it	-9.71738
▁prominent	-9.71762
▁Foundation	-9.71768
▁Governor	-9.71773
▁positive	-9.71816
▁label	-9.71921
▁fall	-9.72214
▁chart	-9.72305
▁Creek	-9.72339
▁idea	-9.72354
▁appear	-9.72361
▁Love	-9.72384
▁friends	-9.72453
▁continue	-9.72728
▁conducted	-9.72745
▁ancient	-9.72813
▁Francisco	-9.72837
▁Civil	-9.72842
▁cut	-9.72943
▁test	-9.73185
▁news	-9.73276
▁Young	-9.73472
by	-9.73493
▁removed	-9.73709
▁Jones	-9.73741
▁products	-9.73793
▁intended	-9.73835
▁planned	-9.73881
▁Asia	-9.74
x	-9.74026
▁Johnson	-9.74126
▁here	-9.74232
▁stars	-9.74271
▁initial	-9.74308
▁channel	-9.74451
▁potential	-9.74519
ville	-9.74551
▁semi	-9.74631
▁parish	-9.74675
▁makes	-9.74779
▁dedicated	-9.74833
▁value	-9.7486
▁workers	-9.74861
▁Life	-9.75011
▁youth	-9.75018
▁rule	-9.75122
▁ordered	-9.75174
▁scene	-9.75235
▁Bill	-9.75238
▁Secretary	-9.75302
▁Pennsylvania	-9.75498
▁Also	-9.75562
▁Fort	-9.75638
▁pay	-9.75743
▁coast	-9.75746
um	-9.75819
▁titled	-9.7582
▁view	-9.75866
▁Scottish	-9.75955
▁assistant	-9.76065
▁p	-9.76075
▁notable	-9.7609
▁reviews	-9.76383
▁basis	-9.76442
▁floor	-9.76442
▁housing	-9.76557
▁growth	-9.76598
▁security	-9.76628
▁defeat	-9.76979
▁Israel	-9.77089
▁Sun	-9.77115
▁join	-9.77124
▁stories	-9.77166
▁Alexander	-9.77182
▁Rock	-9.77188
▁lives	-9.77256
▁fellow	-9.7729
▁focus	-9.77371
ve	-9.77506
▁purchased	-9.77534
▁treatment	-9.77549
▁Columbia	-9.7755
▁highly	-9.77572
▁settlement	-9.77759
▁Avenue	-9.77875
▁smaller	-9.77902
▁officers	-9.77962
▁Corps	-9.78054
▁compared	-9.78097
▁featuring	-9.78232
off	-9.78287
▁immediately	-9.78319
▁quickly	-9.7842
f	-9.78438
▁winner	-9.78445
▁words	-9.78481
▁moving	-9.78522
▁function	-9.78544
▁Coast	-9.7874
▁percent	-9.78849
▁attention	-9.78911
▁divided	-9.78932
▁Office	-9.7894
▁effects	-9.78946
▁agreement	-9.78964
▁respectively	-9.7904
▁build	-9.79049
▁agreed	-9.79109
▁minor	-9.7919
V	-9.79204
▁efforts	-9.79205
▁Major	-9.79302
▁Polish	-9.79305
▁administration	-9.79381
▁Health	-9.79385
▁Scott	-9.79411
American	-9.7982
▁commonly	-9.79935
▁website	-9.79966
▁History	-9.79988
▁speed	-9.80057
▁Open	-9.80148
▁declared	-9.80154
▁mission	-9.80166
▁charge	-9.80173
▁Middle	-9.80269
ma	-9.8032
▁Mr	-9.80344
▁So	-9.80367
▁Tom	-9.80387
▁drama	-9.80487
▁article	-9.8049
▁Of	-9.80538
▁capacity	-9.80613
%)	-9.80621
▁votes	-9.80648
▁Tour	-9.80676
▁letter	-9.8068
▁gained	-9.80772
▁minister	-9.80774
▁males	-9.80801
▁Williams	-9.80812
ie	-9.80823
▁Earth	-9.80877
▁hard	-9.80894
▁density	-9.8093
ist	-9.8097
▁reach	-9.80982
▁amount	-9.81059
▁Three	-9.81074
▁firm	-9.81096
▁giving	-9.81127
▁Director	-9.81134
▁Sydney	-9.81207
▁historic	-9.81328
▁assigned	-9.81481
ra	-9.81591
▁paper	-9.81726
▁star	-9.81746
▁needed	-9.81901
▁destroyed	-9.81976
▁estimated	-9.82031
▁Station	-9.8205
▁ability	-9.8212
▁yet	-9.82133
▁stone	-9.82145
▁inside	-9.82289
▁projects	-9.82311
▁Blue	-9.8233
▁organized	-9.82338
▁We	-9.82429
▁suffered	-9.82445
▁online	-9.82452
▁felt	-9.82634
▁Jack	-9.82679
da	-9.82697
▁Hospital	-9.82791
▁physical	-9.82961
▁Justice	-9.83022
▁largely	-9.83255
▁widely	-9.8332
▁poor	-9.83405
▁crew	-9.83424
▁lies	-9.83502
▁occurred	-9.83506
▁estate	-9.83519
▁Olympic	-9.83611
ness	-9.8365
now	-9.83663
▁job	-9.83695
▁square	-9.83738
▁museum	-9.83746
▁account	-9.8379
▁hosted	-9.83841
▁numbers	-9.83993
▁Iran	-9.84109
▁Over	-9.84153
▁keep	-9.84192
▁Kong	-9.84209
▁hold	-9.84212
▁meet	-9.84259
▁captured	-9.84384
W	-9.84418
▁Victoria	-9.84438
▁mixed	-9.84533
▁conference	-9.84537
▁Frank	-9.84538
co	-9.84645
▁direction	-9.84708
▁adopted	-9.84711
▁stop	-9.84743
▁activity	-9.84748
▁Re	-9.84769
▁Jersey	-9.84786
▁communities	-9.84916
▁Each	-9.85002
▁platform	-9.85024
▁Long	-9.85025
ni	-9.85053
▁quality	-9.85123
▁Ministry	-9.8515
▁approach	-9.85217
▁flight	-9.85297
▁Hong	-9.85396
▁Michigan	-9.85449
▁accepted	-9.85489
▁trial	-9.85597
▁facilities	-9.85725
▁Berlin	-9.85745
▁bank	-9.85771
▁typically	-9.8583
▁Prime	-9.85924
▁leaders	-9.8601
▁concept	-9.86076
▁operating	-9.86114
com	-9.86236
▁prison	-9.8624
▁branch	-9.86241
▁household	-9.86248
▁expanded	-9.86342
▁serves	-9.86349
for	-9.8635
▁presence	-9.8647
▁Van	-9.86484
▁territory	-9.86506
▁leadership	-9.86589
▁forward	-9.86731
▁Jr	-9.86737
▁academic	-9.86753
▁Don	-9.86764
▁follows	-9.86769
▁sources	-9.86938
▁Supreme	-9.86975
▁Ohio	-9.87012
▁sub	-9.87023
▁computer	-9.87166
▁Top	-9.87273
like	-9.87309
▁upper	-9.87324
ian	-9.87346
▁miles	-9.87405
▁Elizabeth	-9.87426
▁confirmed	-9.87817
▁resulted	-9.87977
▁heart	-9.87988
li	-9.8814
▁Federal	-9.8817
▁types	-9.88171
▁silver	-9.88178
▁Stadium	-9.88221
▁pressure	-9.88254
▁metal	-9.88268
▁owner	-9.88295
▁difficult	-9.88314
▁remain	-9.88476
▁Corporation	-9.88509
▁reduced	-9.88571
▁voice	-9.88577
▁camp	-9.88601
▁spread	-9.88618
▁text	-9.8862
▁News	-9.88713
▁probably	-9.88716
▁Development	-9.88718
▁ice	-9.88887
am	-9.88895
▁Jean	-9.88907
▁coming	-9.8897
▁footballer	-9.89117
▁dance	-9.89199
▁granted	-9.89204
=	-9.89289
▁Georgia	-9.89323
un	-9.89329
▁combined	-9.89347
▁comes	-9.89498
▁Little	-9.89614
▁champion	-9.89617
▁pass	-9.89777
▁roles	-9.89847
▁ranked	-9.90069
▁suggested	-9.90097
▁Mount	-9.90119
▁Library	-9.90175
▁method	-9.90203
▁acting	-9.90241
▁Toronto	-9.90261
▁surrounding	-9.90292
▁taught	-9.90462
▁street	-9.90465
men	-9.90494
▁couple	-9.9052
▁episodes	-9.90544
▁Before	-9.90566
▁equipment	-9.90617
▁leaves	-9.9067
▁interview	-9.90727
▁critical	-9.90823
▁damage	-9.90919
▁clear	-9.90932
▁Korea	-9.90935
▁governor	-9.90985
▁Massachusetts	-9.9104
▁solo	-9.91045
▁era	-9.91055
▁painting	-9.9109
▁identified	-9.91108
▁newly	-9.91158
▁alone	-9.9117
▁mass	-9.91214
▁fell	-9.91221
▁showed	-9.91271
▁Duke	-9.913
▁offer	-9.91415
▁format	-9.91462
▁committee	-9.91493
▁...	-9.91509
▁FC	-9.91543
▁nominated	-9.91679
▁languages	-9.91721
▁gas	-9.91758
▁losing	-9.91761
▁Born	-9.91826
▁mentioned	-9.91853
▁Time	-9.91885
▁parties	-9.92006
▁distance	-9.92035
▁Route	-9.92066
▁places	-9.92202
▁Show	-9.92278
▁yards	-9.92317
▁seats	-9.9232
▁resulting	-9.92414
which	-9.9254
with	-9.92576
▁Cross	-9.92594
▁digital	-9.92615
▁expected	-9.92636
▁master	-9.9266
▁comedy	-9.92677
▁content	-9.92708
▁finish	-9.9282
▁therefore	-9.92873
▁distribution	-9.92939
▁arrested	-9.92945
▁kept	-9.93043
▁cars	-9.93067
▁share	-9.93078
▁contemporary	-9.93099
▁teacher	-9.93138
▁tried	-9.93202
▁inspired	-9.93228
class	-9.93423
▁split	-9.93451
▁press	-9.93561
▁product	-9.93733
▁offers	-9.93755
▁Police	-9.93934
▁rules	-9.93941
▁multi	-9.93982
less	-9.9399
▁guitar	-9.93999
▁recognized	-9.94011
▁birth	-9.94086
▁literature	-9.94105
▁travel	-9.94125
▁creation	-9.94137
▁recently	-9.94138
▁Joe	-9.94153
▁Li	-9.94191
▁Port	-9.94209
▁disease	-9.94303
▁Philadelphia	-9.94407
▁Professor	-9.94515
▁Places	-9.9453
▁problem	-9.94565
▁obtained	-9.94609
▁Post	-9.94634
▁paid	-9.94682
▁twice	-9.9475
▁mountain	-9.9484
▁green	-9.95008
▁claims	-9.95118
▁BC	-9.95188
▁sales	-9.95197
▁receive	-9.95212
▁union	-9.9522
▁Book	-9.95247
▁Go	-9.9527
▁Airport	-9.95558
▁secondary	-9.95571
▁singles	-9.9563
▁campus	-9.95635
▁figure	-9.95737
▁develop	-9.95745
▁association	-9.95771
▁Santa	-9.95781
▁billion	-9.95848
▁opposition	-9.95913
▁Swedish	-9.95918
▁critics	-9.95922
▁store	-9.95938
▁Jackson	-9.95965
▁formation	-9.96048
▁positions	-9.96146
▁providing	-9.96189
▁growing	-9.96235
▁buried	-9.96259
et	-9.96518
▁urban	-9.96618
▁Billboard	-9.9662
ya	-9.96696
▁chairman	-9.9671
▁draw	-9.96779
▁performances	-9.96798
▁actually	-9.96824
▁Pro	-9.96854
▁Between	-9.96876
▁Oxford	-9.96899
▁Ben	-9.96909
▁Due	-9.96979
▁prevent	-9.97028
▁facility	-9.97117
▁connected	-9.97215
▁Home	-9.97256
▁greater	-9.9726
▁Premier	-9.97284
▁Bridge	-9.97308
▁Sam	-9.97349
▁Rome	-9.97361
▁officials	-9.97407
ri	-9.97417
▁injury	-9.97428
▁younger	-9.97436
▁Bishop	-9.97497
▁plants	-9.97525
▁true	-9.97613
▁marked	-9.97627
▁effort	-9.97685
▁break	-9.97711
▁Game	-9.97734
▁climate	-9.97857
▁founder	-9.97905
▁authorities	-9.97959
▁wall	-9.98122
▁color	-9.98173
▁commander	-9.98408
▁allowing	-9.98412
▁Among	-9.98443
▁trains	-9.98448
▁Korean	-9.98499
▁Nations	-9.98526
▁cannot	-9.98587
▁becomes	-9.98693
▁scoring	-9.98779
▁purpose	-9.98819
ch	-9.98821
▁analysis	-9.98892
▁library	-9.98895
▁aired	-9.98993
▁succeeded	-9.99028
▁spring	-9.99036
▁situated	-9.99092
▁traffic	-9.99135
▁awards	-9.99145
▁blood	-9.99224
▁Islands	-9.99233
▁Gold	-9.99237
▁designated	-9.99253
▁Illinois	-9.99351
▁models	-9.99359
▁continues	-9.99389
▁know	-9.9947
ko	-9.99567
▁existing	-9.99621
▁clubs	-9.99633
▁Men	-9.99694
▁twenty	-9.99762
▁situation	-9.99773
▁unique	-9.99819
▁attacks	-9.99935
▁cell	-9.99956
ti	-9.99959
▁sixth	-10.0003
▁teaching	-10.0012
ry	-10.0029
▁says	-10.0029
▁applied	-10.0032
▁festival	-10.0036
▁Sports	-10.0051
▁blue	-10.0075
▁image	-10.0077
▁Z	-10.0081
▁impact	-10.0101
▁figures	-10.0121
▁Highway	-10.013
▁Because	-10.0131
▁Land	-10.0132
▁dead	-10.0136
▁Brazil	-10.0137
▁Pakistan	-10.0138
?	-10.0147
▁fully	-10.0149
▁claim	-10.0149
▁audience	-10.0152
▁knowledge	-10.0168
century	-10.0172
▁murder	-10.0174
▁completely	-10.0177
▁Special	-10.0184
▁Social	-10.019
U	-10.0192
▁captain	-10.0209
▁headquarters	-10.0215
▁nation	-10.0217
▁Andrew	-10.0218
▁returning	-10.0229
▁Captain	-10.0233
▁cells	-10.0235
▁portion	-10.0237
▁titles	-10.0246
▁CD	-10.0256
▁Wilson	-10.0257
▁refused	-10.0257
▁achieved	-10.026
▁di	-10.0264
▁Bar	-10.0267
▁creating	-10.0269
▁Lady	-10.0271
▁politics	-10.0272
▁relatively	-10.0276
▁von	-10.0282
▁visit	-10.0285
▁Taylor	-10.0295
▁tower	-10.0302
▁tells	-10.0303
▁unable	-10.0308
▁organizations	-10.031
▁risk	-10.0314
▁partner	-10.0315
▁chosen	-10.0321
▁sign	-10.0326
▁Field	-10.0329
+	-10.0338
▁except	-10.0342
▁sexual	-10.0356
▁tax	-10.0358
▁quarter	-10.0359
also	-10.036
▁advanced	-10.0363
▁bring	-10.0369
▁promotion	-10.038
▁concert	-10.0387
▁materials	-10.0393
▁albums	-10.0395
▁And	-10.0395
▁Atlantic	-10.0402
▁code	-10.0415
▁visited	-10.0415
▁environment	-10.0421
▁feet	-10.0424
▁authority	-10.0427
▁=	-10.0433
▁regions	-10.0435
ner	-10.0436
▁dark	-10.0442
▁starring	-10.0453
▁fighting	-10.0461
▁allows	-10.0478
▁simply	-10.0479
▁squad	-10.048
▁settled	-10.0485
▁exchange	-10.0495
▁sites	-10.0516
▁oldest	-10.0516
▁bought	-10.0519
▁reference	-10.0524
▁actress	-10.0526
▁frequently	-10.0527
▁morning	-10.0528
▁read	-10.0551
▁industrial	-10.0555
▁tree	-10.0556
▁subsequent	-10.056
▁attempted	-10.0567
▁Ontario	-10.057
▁temple	-10.0573
▁approved	-10.0587
▁Castle	-10.0591
▁reports	-10.0594
▁Prize	-10.0599
▁follow	-10.0603
▁Inc	-10.0603
▁Like	-10.0604
▁things	-10.0604
J	-10.0606
▁Regiment	-10.0611
▁block	-10.0613
▁Francis	-10.0617
▁wing	-10.062
he	-10.0636
▁bus	-10.0642
▁conflict	-10.0646
▁publication	-10.0649
ur	-10.0651
▁Four	-10.0656
▁Netherlands	-10.0656
▁v	-10.0658
▁copies	-10.066
▁theme	-10.0663
▁broke	-10.0677
▁Several	-10.069
▁documentary	-10.0692
▁scientific	-10.0693
▁fans	-10.0699
▁deep	-10.0707
out	-10.0707
▁architecture	-10.0716
▁guest	-10.0729
▁necessary	-10.0736
▁begins	-10.0737
▁Ma	-10.0741
▁ultimately	-10.0751
▁focused	-10.0751
▁holds	-10.0751
▁reason	-10.0756
▁represent	-10.0778
▁Chris	-10.0801
▁tradition	-10.0805
▁goes	-10.0817
▁gives	-10.0818
▁transfer	-10.0819
ity	-10.0827
▁big	-10.0829
▁Media	-10.083
▁defined	-10.084
▁theatre	-10.0841
▁opposed	-10.0845
▁vice	-10.0847
▁machine	-10.0853
▁attacked	-10.0866
▁expansion	-10.0871
▁rank	-10.0877
▁bronze	-10.0885
▁Night	-10.0887
▁faced	-10.0888
▁Golden	-10.0905
▁shared	-10.0911
▁baseball	-10.0916
▁Emperor	-10.0917
▁something	-10.0924
▁lake	-10.0925
ul	-10.0926
▁brothers	-10.0929
▁origin	-10.0932
▁Bob	-10.0943
▁Beach	-10.0948
▁fish	-10.0949
line	-10.0949
▁(;	-10.0952
▁mayor	-10.0957
▁Mexican	-10.0958
▁relations	-10.0959
▁Master	-10.0979
▁port	-10.098
▁attempts	-10.098
▁brand	-10.0983
▁sense	-10.0985
ling	-10.0994
▁Fox	-10.1
▁Arthur	-10.1004
▁software	-10.1009
▁Mike	-10.102
known	-10.1043
▁ending	-10.1044
▁supply	-10.105
▁transport	-10.1056
▁cancer	-10.1061
▁perform	-10.1061
▁formerly	-10.1061
▁representing	-10.1066
▁dropped	-10.1067
▁qualified	-10.1068
▁daily	-10.1075
▁unknown	-10.1083
▁royal	-10.1084
▁employed	-10.1091
▁airport	-10.1092
▁Khan	-10.1103
▁receiving	-10.1104
▁consisted	-10.1105
▁memory	-10.1105
▁joint	-10.1106
▁Be	-10.1111
▁entitled	-10.1124
▁founding	-10.1125
▁principal	-10.1125
▁commissioned	-10.1134
▁table	-10.1141
▁agent	-10.1142
▁Medical	-10.1155
▁crime	-10.1155
▁Native	-10.1161
▁effective	-10.1162
▁sons	-10.117
▁piece	-10.117
▁pro	-10.1173
▁winter	-10.1175
▁Technology	-10.1185
▁classes	-10.1189
▁shortly	-10.1189
▁Ali	-10.119
▁Sweden	-10.119
▁Maria	-10.1194
▁et	-10.1204
▁extensive	-10.1205
▁sides	-10.121
▁occupied	-10.1215
▁USA	-10.1215
▁Federation	-10.1223
▁etc	-10.1224
▁fought	-10.123
▁mm	-10.1232
▁e	-10.1233
▁pop	-10.1244
▁Hot	-10.1252
▁Network	-10.1252
▁Journal	-10.1257
▁stand	-10.126
▁versions	-10.126
▁kind	-10.1261
▁animals	-10.1269
os	-10.1273
▁sought	-10.1276
▁safety	-10.1278
▁pair	-10.128
▁Power	-10.128
▁lot	-10.1286
▁actions	-10.1298
▁Community	-10.1305
▁meant	-10.1306
▁districts	-10.1306
▁protection	-10.1319
▁converted	-10.1334
▁sets	-10.1341
▁contributed	-10.1341
▁Census	-10.1342
▁gun	-10.1352
▁scheduled	-10.1365
▁retirement	-10.1368
▁powerful	-10.1387
▁entry	-10.1389
▁condition	-10.1395
▁methods	-10.1395
▁Cape	-10.1396
▁Daniel	-10.14
▁temperature	-10.1407
▁global	-10.1411
▁girl	-10.1412
▁laws	-10.1423
▁avoid	-10.143
▁drive	-10.1431
▁forest	-10.1433
▁launch	-10.1435
▁someone	-10.1437
▁performing	-10.1437
▁economy	-10.1439
▁del	-10.144
j	-10.144
go	-10.1449
▁setting	-10.145
▁Township	-10.1452
▁resigned	-10.1453
▁say	-10.147
▁villages	-10.1474
▁simple	-10.1478
▁reasons	-10.1483
▁weight	-10.1483
▁write	-10.1484
▁holding	-10.1488
▁hall	-10.1492
In	-10.1493
me	-10.1512
▁look	-10.152
▁establishment	-10.1541
ng	-10.1546
▁Stephen	-10.1561
▁increasing	-10.1561
▁praised	-10.1562
▁arts	-10.1571
▁Jim	-10.1575
▁Ukraine	-10.1577
▁c	-10.1583
▁permanent	-10.1583
▁drug	-10.1584
▁maximum	-10.1598
TV	-10.1609
▁vehicle	-10.1624
▁‘	-10.1629
▁Military	-10.1629
▁resources	-10.163
▁begin	-10.163
▁hotel	-10.1632
▁Davis	-10.1632
▁defense	-10.1633
▁citizens	-10.1635
▁institutions	-10.1651
▁Labour	-10.1657
▁More	-10.1659
▁search	-10.1659
▁Forest	-10.1663
▁lyrics	-10.1667
▁judge	-10.167
▁farm	-10.1676
▁matter	-10.1677
▁Business	-10.1682
▁exhibition	-10.1698
▁finishing	-10.1703
▁identity	-10.1707
▁Cambridge	-10.1712
▁engineering	-10.1714
▁vehicles	-10.1725
▁journalist	-10.1727
▁investigation	-10.1729
▁combat	-10.1731
field	-10.1739
▁concluded	-10.1745
▁arms	-10.1747
▁Song	-10.1753
▁Prior	-10.1757
▁determined	-10.1759
▁box	-10.1771
▁articles	-10.1776
▁Lewis	-10.1776
do	-10.1778
▁Muslim	-10.1781
▁van	-10.179
▁domestic	-10.1793
▁category	-10.1793
▁speech	-10.1798
▁expressed	-10.1803
▁argued	-10.1804
▁architect	-10.181
▁hired	-10.1813
▁structures	-10.1819
▁centuries	-10.182
▁peace	-10.1823
▁contact	-10.1836
▁supporting	-10.1836
▁learning	-10.1837
▁invited	-10.1841
▁hands	-10.1851
▁premiered	-10.1858
▁decades	-10.1859
▁trees	-10.1859
▁walls	-10.1864
▁consecutive	-10.1877
▁Today	-10.1884
▁composer	-10.1884
▁beyond	-10.1884
▁containing	-10.1887
▁Studies	-10.189
▁want	-10.1892
▁pieces	-10.1893
▁Upon	-10.1895
▁rear	-10.19
▁abandoned	-10.1905
▁aged	-10.1906
▁girls	-10.1907
ine	-10.1908
▁candidates	-10.1909
▁stating	-10.1913
▁onto	-10.1915
▁About	-10.1921
▁Minnesota	-10.1928
way	-10.1938
▁application	-10.1941
▁Melbourne	-10.1941
▁Country	-10.1949
▁Wisconsin	-10.1952
▁letters	-10.1961
▁horse	-10.1963
▁derived	-10.1967
▁funding	-10.1974
▁Region	-10.1974
▁Dan	-10.1974
▁racing	-10.1986
▁Sciences	-10.1988
▁height	-10.1988
▁merged	-10.1991
▁Turkey	-10.1994
▁needs	-10.2003
▁Y	-10.2012
▁Mountain	-10.2014
▁Bureau	-10.2018
ro	-10.202
▁influenced	-10.2021
▁voted	-10.2023
▁junior	-10.2033
▁successfully	-10.2038
▁Jews	-10.2043
▁Sunday	-10.2046
▁roof	-10.2051
▁entrance	-10.2067
▁Affairs	-10.2076
▁Memorial	-10.2084
▁representative	-10.2092
▁technical	-10.2093
▁System	-10.2096
▁metres	-10.2097
▁stay	-10.2098
▁contained	-10.21
▁bill	-10.2108
▁poet	-10.2108
▁highway	-10.2108
▁ball	-10.2111
▁rise	-10.2119
▁basic	-10.2119
▁honor	-10.2129
▁ceremony	-10.213
▁planning	-10.2138
▁Pan	-10.2138
▁yellow	-10.2146
▁question	-10.2148
▁developing	-10.215
▁connection	-10.2151
▁Project	-10.2151
▁Entertainment	-10.2155
▁alternative	-10.2156
▁Steve	-10.2156
▁Rural	-10.2164
▁presidential	-10.2195
▁/	-10.2199
▁Queensland	-10.2201
▁castle	-10.2208
ation	-10.221
▁failure	-10.2212
▁locations	-10.2215
▁display	-10.2221
▁covers	-10.223
▁fields	-10.2237
▁slightly	-10.2243
▁installed	-10.2246
▁sex	-10.2256
▁properties	-10.2264
ion	-10.2265
▁notes	-10.2266
▁violence	-10.2269
▁straight	-10.2272
▁Philippines	-10.2279
▁Earl	-10.2281
▁enemy	-10.2291
▁sector	-10.2299
▁herself	-10.23
▁collected	-10.2306
▁doing	-10.2307
▁pilot	-10.2312
▁Is	-10.2313
▁incorporated	-10.2319
▁NCAA	-10.2333
▁offices	-10.2343
▁generation	-10.2347
▁Moscow	-10.2359
▁invasion	-10.2362
▁programme	-10.2365
▁hockey	-10.2366
▁religion	-10.2374
▁Portuguese	-10.24
▁historian	-10.2403
▁ahead	-10.2404
▁funds	-10.2405
▁rare	-10.2411
▁Christmas	-10.2417
é	-10.2417
▁volume	-10.2418
▁Tennessee	-10.2423
▁refers	-10.2423
▁Revolution	-10.2424
▁independence	-10.2425
▁patients	-10.2427
▁occur	-10.2431
▁Miller	-10.2432
▁acts	-10.2434
▁Channel	-10.2442
▁carry	-10.2448
▁registered	-10.245
▁Norway	-10.245
▁Maryland	-10.245
di	-10.2454
▁advance	-10.2459
▁promote	-10.2462
▁incident	-10.2464
▁heavily	-10.2478
▁Kansas	-10.2481
▁existence	-10.2486
▁Junior	-10.2487
▁Vietnam	-10.2489
▁Point	-10.249
▁twelve	-10.2496
▁Foreign	-10.25
▁think	-10.2502
It	-10.2503
$	-10.2505
side	-10.251
▁maintained	-10.2515
▁worldwide	-10.2518
▁establish	-10.2521
▁Bell	-10.2522
▁Missouri	-10.2526
▁enter	-10.2527
▁guns	-10.2534
▁finds	-10.2536
▁killing	-10.2541
▁bar	-10.2545
▁internal	-10.2547
▁fleet	-10.2548
▁recognition	-10.2555
▁electric	-10.2557
▁foundation	-10.2561
▁ex	-10.2568
▁stadium	-10.2571
▁toward	-10.2572
▁passenger	-10.2573
▁shape	-10.2578
▁protect	-10.2585
▁selection	-10.2592
ll	-10.2594
▁engaged	-10.2599
▁Simon	-10.2601
▁Area	-10.2604
▁literary	-10.2615
▁phase	-10.2617
▁Class	-10.2617
▁regarding	-10.262
▁Miss	-10.2621
▁observed	-10.2628
se	-10.2628
▁loan	-10.2635
▁scenes	-10.2636
▁beat	-10.2639
ji	-10.264
▁Free	-10.2644
▁laid	-10.2646
▁secretary	-10.2647
▁municipal	-10.2654
▁driver	-10.2657
ge	-10.2659
▁vocals	-10.2669
▁towns	-10.2674
lin	-10.2674
▁weapons	-10.2675
▁producing	-10.2676
▁reaching	-10.2677
▁negative	-10.2678
▁scale	-10.2703
sen	-10.2704
▁serious	-10.2707
▁compete	-10.2715
▁ring	-10.2722
):	-10.2727
▁joining	-10.2739
▁Sri	-10.274
▁causing	-10.2742
▁steel	-10.2746
▁Norwegian	-10.2752
▁corner	-10.2755
▁Pope	-10.2756
▁normal	-10.2761
▁statement	-10.2764
▁Head	-10.2765
▁accused	-10.277
▁sale	-10.2772
▁Ford	-10.2772
▁Ten	-10.2773
il	-10.2783
▁passing	-10.2783
▁Arab	-10.2785
▁trying	-10.2794
▁environmental	-10.2804
▁closely	-10.2806
▁Manchester	-10.2822
ca	-10.2822
▁consisting	-10.2825
▁occurs	-10.2826
yard	-10.2828
▁racial	-10.2829
▁reserve	-10.2833
▁classical	-10.2837
▁calling	-10.2839
▁Singapore	-10.2839
▁ways	-10.2841
▁Walter	-10.2841
▁employees	-10.2841
▁Rose	-10.2852
▁entirely	-10.2858
▁improve	-10.2858
▁Albert	-10.286
▁Turkish	-10.2862
▁Harry	-10.288
▁Arizona	-10.288
▁try	-10.2883
▁background	-10.2888
▁draft	-10.289
west	-10.2891
▁Square	-10.2893
berg	-10.2894
▁importance	-10.2898
▁peak	-10.2898
▁nuclear	-10.2904
▁powers	-10.2906
▁ends	-10.2907
▁edge	-10.2908
▁proved	-10.2921
▁functions	-10.2933
▁paintings	-10.2935
▁extension	-10.2937
▁escape	-10.2939
▁specifically	-10.2946
▁regarded	-10.2951
▁chose	-10.2952
▁injured	-10.2953
▁exist	-10.2954
▁Egypt	-10.2955
▁rail	-10.2956
▁calls	-10.2956
▁heard	-10.2964
▁Stone	-10.2966
▁i	-10.2968
▁boat	-10.2968
▁Live	-10.2973
ke	-10.2981
be	-10.2984
▁Space	-10.2984
▁engineer	-10.2984
▁Member	-10.2986
▁Band	-10.2992
▁price	-10.3002
▁Human	-10.3013
▁educational	-10.3013
▁introduction	-10.3018
▁choice	-10.3023
▁aid	-10.3028
▁really	-10.3028
▁rating	-10.305
▁Jan	-10.3052
▁gender	-10.3055
▁card	-10.3057
including	-10.3058
▁Temple	-10.306
see	-10.3062
▁describes	-10.3078
back	-10.308
▁your	-10.3083
▁Un	-10.3094
▁earliest	-10.3101
▁Representatives	-10.3102
▁Building	-10.3107
▁rugby	-10.3109
▁views	-10.3113
▁debuted	-10.3127
▁Tony	-10.3139
▁animal	-10.3143
▁Austria	-10.3146
wood	-10.3147
▁programming	-10.3152
▁target	-10.3154
▁seventh	-10.3162
▁inhabitants	-10.3168
▁Colorado	-10.3171
▁us	-10.3172
▁affected	-10.3173
all	-10.3174
▁reduce	-10.3177
▁Water	-10.3182
▁Howard	-10.3188
▁opportunity	-10.3198
▁Light	-10.3199
▁gain	-10.3204
▁fuel	-10.3207
▁believe	-10.3209
ki	-10.3225
▁Early	-10.3226
▁Liberal	-10.3226
▁Though	-10.3227
▁ruled	-10.3227
▁Anne	-10.3229
▁Final	-10.3233
den	-10.3235
▁residence	-10.3245
▁Only	-10.3251
▁Switzerland	-10.3255
▁Ocean	-10.3255
▁combination	-10.3256
▁Bo	-10.3258
▁du	-10.3267
▁criticized	-10.3275
▁ideas	-10.3279
▁Hamilton	-10.3281
▁Americans	-10.3289
▁wood	-10.3292
▁Mar	-10.3305
▁opera	-10.331
▁starts	-10.332
▁trained	-10.3328
▁agency	-10.3332
ler	-10.3336
▁neighborhood	-10.3338
▁spot	-10.3339
▁factory	-10.3345
▁criminal	-10.3348
▁survived	-10.3352
▁Christ	-10.3354
▁passes	-10.337
v	-10.339
▁Communist	-10.3391
▁defeating	-10.3392
▁participate	-10.3393
ov	-10.3397
▁lawyer	-10.3403
▁Vice	-10.3405
▁Infantry	-10.341
▁Fame	-10.3411
▁township	-10.3413
▁address	-10.3415
▁Forces	-10.3416
▁Regional	-10.3416
▁educated	-10.3416
▁piano	-10.3419
▁Hotel	-10.3419
▁quite	-10.3419
▁equal	-10.3424
▁adult	-10.3429
▁zone	-10.3429
▁bodies	-10.3432
▁Car	-10.3442
▁session	-10.3446
▁Fire	-10.3456
▁orders	-10.3458
▁flow	-10.3461
▁glass	-10.3463
▁Swiss	-10.3464
▁agricultural	-10.3468
▁poetry	-10.3471
▁constituency	-10.3473
▁deputy	-10.3486
▁Television	-10.3492
▁fine	-10.3495
▁armed	-10.3495
▁users	-10.3503
▁briefly	-10.3512
▁Winter	-10.3517
▁dates	-10.3523
▁items	-10.3524
▁determine	-10.3527
▁plot	-10.3535
▁maintain	-10.3538
▁EP	-10.3564
▁opposite	-10.3568
▁Magazine	-10.3571
▁Holy	-10.3576
▁drawn	-10.3579
▁interior	-10.3579
long	-10.358
▁rejected	-10.359
▁screen	-10.3591
▁formal	-10.3594
▁Israeli	-10.3607
▁Marine	-10.3609
▁grade	-10.3622
▁Then	-10.3624
▁Medal	-10.3628
▁strength	-10.3628
▁wins	-10.3631
▁standards	-10.3638
ja	-10.3639
ey	-10.3641
▁objects	-10.3646
▁des	-10.3649
▁iron	-10.3652
▁cricket	-10.3654
▁operate	-10.3655
▁Diego	-10.3656
▁passengers	-10.3657
▁Adam	-10.3667
▁Age	-10.3676
▁Indiana	-10.3677
▁ensure	-10.368
▁Additionally	-10.3683
▁Hollywood	-10.3685
▁adjacent	-10.3693
▁collaboration	-10.3694
▁committed	-10.3696
▁graduate	-10.3708
▁Naval	-10.3708
▁kill	-10.3712
▁stock	-10.3717
▁singing	-10.3719
▁Once	-10.372
▁controlled	-10.3724
▁possibly	-10.3725
▁Islamic	-10.3727
▁improved	-10.3729
▁NFL	-10.3735
▁IV	-10.374
▁Oregon	-10.374
▁charges	-10.374
id	-10.3744
▁resistance	-10.3748
▁skills	-10.3749
▁request	-10.375
▁reality	-10.3754
ham	-10.3758
▁partnership	-10.3758
war	-10.3761
ter	-10.3767
▁bottom	-10.3767
▁Family	-10.3776
▁getting	-10.3782
▁refer	-10.3783
▁Good	-10.379
▁Management	-10.3791
▁separated	-10.3792
▁weather	-10.3799
▁extra	-10.3802
▁flat	-10.3815
▁regularly	-10.3815
▁lands	-10.3823
▁Brigade	-10.3835
▁brown	-10.3835
▁capture	-10.3842
▁distributed	-10.3847
▁sport	-10.3849
▁reign	-10.3856
▁poverty	-10.3863
▁leg	-10.3867
▁decade	-10.3869
▁applications	-10.387
▁contrast	-10.387
per	-10.3872
▁valley	-10.3872
▁Wood	-10.3873
We	-10.3879
▁Kim	-10.3882
▁values	-10.3886
▁Up	-10.3888
▁Thus	-10.389
▁Houston	-10.3901
▁secret	-10.3903
▁Out	-10.3908
▁Te	-10.391
▁visual	-10.3912
▁contain	-10.3913
▁contest	-10.3914
▁comic	-10.3916
sky	-10.392
▁franchise	-10.3926
▁heat	-10.3928
▁Engineering	-10.3936
▁easily	-10.3938
▁Gallery	-10.3952
▁bands	-10.3957
▁Security	-10.3958
who	-10.3958
▁charged	-10.3959
▁interests	-10.3961
▁core	-10.3966
▁fiction	-10.3967
▁save	-10.3968
▁damaged	-10.3976
▁experienced	-10.3978
w	-10.3983
▁replace	-10.3987
▁Services	-10.3987
▁Greece	-10.3996
▁fast	-10.4009
▁demand	-10.4012
wa	-10.4014
▁Jesus	-10.4014
▁hundred	-10.4019
▁Lieutenant	-10.4022
▁images	-10.4027
▁jazz	-10.403
term	-10.4035
level	-10.404
▁seems	-10.4045
ally	-10.4052
▁purchase	-10.4056
▁ethnic	-10.4058
▁dynasty	-10.4063
▁Samuel	-10.4065
▁Ray	-10.4067
▁retained	-10.4069
▁Q	-10.407
▁Douglas	-10.4072
ir	-10.4076
▁Main	-10.4079
▁Clark	-10.408
▁Mac	-10.4083
▁budget	-10.4094
ha	-10.4099
▁personnel	-10.4104
▁Ross	-10.4123
").	-10.4124
▁Frederick	-10.4132
▁leads	-10.4135
▁Moore	-10.4135
▁driving	-10.4141
▁northeast	-10.4143
▁northwest	-10.4143
▁fashion	-10.4145
▁delivered	-10.4147
▁homes	-10.4152
▁distinct	-10.4155
▁List	-10.416
▁Patrick	-10.4165
▁why	-10.417
▁churches	-10.417
▁bass	-10.4176
▁advantage	-10.4179
"),	-10.418
▁attached	-10.4184
▁foot	-10.4185
▁Harvard	-10.4195
▁musician	-10.4197
▁sections	-10.4198
▁CEO	-10.4198
▁Trust	-10.4203
▁intelligence	-10.4204
▁prize	-10.4209
▁storm	-10.4211
▁Mayor	-10.4211
▁surname	-10.4212
▁causes	-10.4215
▁credited	-10.4216
▁Commonwealth	-10.4217
▁Youth	-10.4218
▁stood	-10.4222
▁investment	-10.4234
▁device	-10.4235
▁Executive	-10.4235
▁anniversary	-10.4236
▁Not	-10.4237
▁Review	-10.4238
▁Battalion	-10.4239
▁accident	-10.4246
▁strike	-10.4247
▁Ukrainian	-10.4249
▁legislation	-10.425
▁Philip	-10.4256
▁map	-10.4257
▁reading	-10.4262
▁showing	-10.4266
▁Juan	-10.4269
▁Lincoln	-10.4271
▁flag	-10.4272
▁shooting	-10.4272
▁severe	-10.4272
ga	-10.4277
▁restored	-10.4281
▁respect	-10.4281
▁standing	-10.4283
▁Prix	-10.4285
▁brief	-10.4288
▁journal	-10.4294
▁contributions	-10.4297
▁Imperial	-10.4297
▁grounds	-10.4298
▁Miami	-10.4302
▁Gordon	-10.431
▁nor	-10.4314
▁Allen	-10.4316
▁headed	-10.4318
law	-10.4319
▁musicians	-10.432
▁chain	-10.4323
▁signal	-10.4324
▁freedom	-10.4325
▁stands	-10.4325
house	-10.4331
▁starred	-10.4332
▁attend	-10.4338
sa	-10.4339
▁Di	-10.4339
▁composition	-10.4341
▁Anna	-10.4346
▁assumed	-10.4346
▁notably	-10.4352
▁Hockey	-10.4353
▁Ottoman	-10.4354
▁minute	-10.4358
▁Kentucky	-10.4362
▁greatest	-10.4367
▁Tokyo	-10.437
▁writers	-10.4375
ized	-10.4376
▁Camp	-10.4378
▁factors	-10.4379
▁Brian	-10.4382
▁Anderson	-10.4383
▁behavior	-10.4387
▁stores	-10.4387
▁Czech	-10.4395
▁formally	-10.4397
▁communication	-10.4403
▁typical	-10.4413
▁Railroad	-10.4416
▁theater	-10.4422
X	-10.4423
ana	-10.4427
▁philosophy	-10.4428
▁selling	-10.4428
▁electronic	-10.443
▁provincial	-10.4433
▁coal	-10.4437
▁Will	-10.4446
▁measures	-10.4454
pur	-10.4459
▁motion	-10.4461
▁broken	-10.4461
▁actual	-10.4465
ty	-10.4473
ba	-10.448
▁Administration	-10.4482
▁painted	-10.4482
▁Village	-10.4487
▁engines	-10.4487
▁Do	-10.4488
▁require	-10.4492
▁goods	-10.4493
▁DVD	-10.4495
▁boys	-10.45
▁Danish	-10.45
▁documents	-10.4501
▁object	-10.4501
▁Ko	-10.4511
▁arrival	-10.4515
▁script	-10.4519
▁carrying	-10.4521
▁commission	-10.4521
▁justice	-10.4523
▁popularity	-10.4523
▁owners	-10.4524
▁Bowl	-10.4526
▁challenge	-10.4529
▁folk	-10.4542
▁institution	-10.4543
▁didn	-10.4548
▁significantly	-10.4555
▁prime	-10.4558
em	-10.4566
▁mind	-10.4567
▁businesses	-10.4568
▁boy	-10.4569
▁step	-10.4576
▁Disney	-10.4582
▁Baseball	-10.4589
ina	-10.459
▁nothing	-10.459
▁roads	-10.4592
▁Children	-10.4594
▁techniques	-10.4598
▁Doctor	-10.4598
▁sell	-10.461
▁admitted	-10.4614
well	-10.4616
im	-10.4617
▁Ltd	-10.4619
▁Argentina	-10.4621
▁Deputy	-10.4624
▁Dublin	-10.464
▁accompanied	-10.464
▁bishop	-10.4643
▁Walker	-10.4647
▁operates	-10.465
rs	-10.4651
age	-10.4657
▁southeast	-10.4659
▁understanding	-10.4659
▁Margaret	-10.4662
ah	-10.4667
▁sequence	-10.4676
▁Independent	-10.4678
▁successor	-10.468
▁Modern	-10.4681
▁Studios	-10.4686
▁islands	-10.469
▁stopped	-10.4692
▁duty	-10.4699
▁crisis	-10.47
▁represents	-10.4701
▁End	-10.4701
▁wind	-10.4704
▁Senior	-10.4706
▁scholars	-10.4711
▁suggests	-10.4717
▁examples	-10.4718
▁Squadron	-10.4719
▁(),	-10.4726
▁champions	-10.473
▁residential	-10.473
▁arranged	-10.473
▁tries	-10.4734
▁Constitution	-10.4744
▁critic	-10.4745
▁Legislative	-10.4752
▁Rights	-10.4754
▁Carl	-10.4757
▁looking	-10.4758
▁Anthony	-10.476
▁qualifying	-10.4762
▁publishing	-10.4764
▁tropical	-10.4765
▁translated	-10.4772
▁difference	-10.479
▁Palace	-10.4791
▁courts	-10.4792
Z	-10.4798
▁don	-10.48
▁prisoners	-10.4801
▁reaction	-10.4807
▁Edinburgh	-10.4811
▁southwest	-10.4815
▁gets	-10.4827
▁moth	-10.4833
▁purposes	-10.4835
▁involving	-10.4842
▁Mississippi	-10.4842
ten	-10.485
▁door	-10.4854
▁Detroit	-10.4855
▁costs	-10.4857
▁routes	-10.4863
▁trip	-10.4872
▁brick	-10.4876
mi	-10.4878
▁learned	-10.4883
▁Quebec	-10.4888
▁winners	-10.4892
▁reform	-10.4893
▁covering	-10.4893
ies	-10.4896
▁Alan	-10.4896
▁filed	-10.4904
▁FM	-10.4909
▁Orchestra	-10.4914
▁shop	-10.4916
▁Heritage	-10.4922
▁eye	-10.4924
▁criticism	-10.4925
▁Third	-10.4929
▁chance	-10.493
▁stages	-10.4932
▁window	-10.494
▁policies	-10.4949
▁medicine	-10.4949
▁courses	-10.4955
▁windows	-10.4959
▁grow	-10.4969
▁painter	-10.4969
▁Can	-10.497
▁interested	-10.4977
▁Iraq	-10.4981
▁Max	-10.4981
▁designs	-10.4982
▁Program	-10.4989
▁labor	-10.4994
ite	-10.4999
▁hour	-10.5
▁wounded	-10.5003
▁Mountains	-10.5006
▁rooms	-10.5011
ization	-10.5018
▁Rugby	-10.502
▁narrow	-10.5023
▁protein	-10.5024
▁factor	-10.5026
▁responsibility	-10.5029
▁Montreal	-10.5029
▁regiment	-10.5029
▁Antonio	-10.5039
▁Rio	-10.505
▁colonial	-10.5054
▁organisation	-10.5056
▁details	-10.5058
▁Iowa	-10.5058
▁fired	-10.5058
▁biggest	-10.5068
▁Singh	-10.5075
▁Cemetery	-10.5078
ate	-10.508
▁page	-10.5085
▁context	-10.509
▁aspects	-10.5091
▁MP	-10.5093
▁protected	-10.5094
▁Brazilian	-10.5096
▁dating	-10.5098
▁measure	-10.5101
▁Grant	-10.5102
▁dry	-10.5114
▁Front	-10.5118
▁Five	-10.5119
▁user	-10.5122
▁replacement	-10.5131
▁birds	-10.5134
▁persons	-10.5138
▁makeup	-10.5145
▁duties	-10.5149
▁translation	-10.515
▁marine	-10.5153
▁equivalent	-10.5161
▁streets	-10.5161
▁Internet	-10.5163
▁en	-10.5165
▁defensive	-10.517
▁concerns	-10.5172
▁soil	-10.5179
▁instance	-10.5182
▁Metropolitan	-10.5195
▁couples	-10.5198
▁Guard	-10.5198
▁humans	-10.5198
▁Mo	-10.5201
▁Trump	-10.5201
▁flying	-10.5217
▁Even	-10.5218
▁Crown	-10.5221
▁extremely	-10.5221
▁Welsh	-10.5226
▁seconds	-10.5229
▁naval	-10.5231
▁chemical	-10.5235
▁degrees	-10.5236
▁mark	-10.5238
don	-10.5239
▁Denmark	-10.5239
▁Connecticut	-10.5239
▁membership	-10.5243
▁parliament	-10.5251
▁cycle	-10.5252
▁Oklahoma	-10.5253
▁Meanwhile	-10.5258
▁meters	-10.5259
▁path	-10.5266
▁priest	-10.5268
▁Tim	-10.5268
▁otherwise	-10.5269
▁Puerto	-10.5272
▁caught	-10.5272
▁Belgium	-10.5273
▁classified	-10.529
▁rich	-10.5293
east	-10.5298
▁Way	-10.5299
▁linked	-10.5304
▁stayed	-10.5309
▁subjects	-10.5311
▁task	-10.5322
▁Nazi	-10.5323
▁declined	-10.533
▁COVID	-10.5333
▁devices	-10.5333
▁missing	-10.5334
▁railroad	-10.5337
we	-10.5341
from	-10.5349
town	-10.5352
▁Atlanta	-10.5356
▁offering	-10.5361
election	-10.5366
▁evening	-10.5367
▁peaked	-10.5369
▁assistance	-10.5373
▁poem	-10.5373
▁acid	-10.5378
▁publications	-10.5385
▁victims	-10.5385
▁adding	-10.5387
▁adaptation	-10.5408
▁Austrian	-10.5412
▁Local	-10.5414
°	-10.5414
▁ownership	-10.5419
▁credit	-10.5425
▁Colonel	-10.5425
▁perhaps	-10.5425
▁Lawrence	-10.5426
▁Global	-10.5431
▁Tamil	-10.5432
▁Harris	-10.5435
▁garden	-10.5439
shaped	-10.5441
▁adapted	-10.5442
▁appearing	-10.5453
▁Saturday	-10.5466
▁Jane	-10.5469
▁mining	-10.547
▁feel	-10.547
▁let	-10.5476
▁relative	-10.5481
.”	-10.5483
▁competitions	-10.5489
▁achieve	-10.5499
▁medium	-10.55
mer	-10.5507
▁Roger	-10.5509
▁flowers	-10.5509
▁chair	-10.5511
▁pattern	-10.5511
▁nomination	-10.5514
▁Bush	-10.5515
▁favor	-10.5516
▁Operation	-10.5516
▁signing	-10.5518
▁Alex	-10.5519
▁mine	-10.5521
▁Per	-10.5522
▁roughly	-10.5525
▁heritage	-10.5529
mo	-10.5532
▁finding	-10.5532
▁Real	-10.5536
▁Ka	-10.5537
▁storage	-10.5549
au	-10.5551
▁fixed	-10.5552
▁faculty	-10.5553
▁mean	-10.5554
▁rates	-10.5566
▁Sky	-10.5566
▁assembly	-10.5568
▁Command	-10.5569
▁scheme	-10.5574
▁Through	-10.5575
▁Garden	-10.5576
io	-10.5579
▁raise	-10.5579
▁Commander	-10.5583
▁increasingly	-10.559
▁offensive	-10.5594
▁crossing	-10.5596
▁appointment	-10.5597
▁electoral	-10.5604
story	-10.5606
pa	-10.5609
▁Louisiana	-10.5624
▁existed	-10.563
▁influential	-10.5631
▁Kent	-10.5633
ak	-10.5637
▁brain	-10.5639
▁dated	-10.564
▁indicate	-10.5642
▁restaurant	-10.5646
▁Han	-10.5646
▁solution	-10.5647
▁coastal	-10.5648
▁prepared	-10.5654
▁Indonesia	-10.5654
▁Matt	-10.5656
kin	-10.5665
▁ABC	-10.5667
▁flows	-10.5674
▁parallel	-10.5676
▁denied	-10.5676
▁appeal	-10.5681
▁practices	-10.5683
▁returns	-10.5695
▁Reserve	-10.5696
▁hits	-10.5697
▁proposal	-10.5698
▁guard	-10.5698
▁Alliance	-10.57
▁alleged	-10.5702
▁Officer	-10.5706
▁wooden	-10.5707
▁Boy	-10.5707
▁cited	-10.5722
▁occupation	-10.5724
▁Conservative	-10.5733
▁Liverpool	-10.5733
called	-10.5735
▁Na	-10.5736
▁Oblast	-10.5738
▁Kelly	-10.5739
▁eliminated	-10.5744
▁approval	-10.5746
▁artillery	-10.5748
▁threat	-10.5748
▁Las	-10.5748
▁boundary	-10.5754
▁tied	-10.5758
▁Opera	-10.5759
▁eighth	-10.5759
ant	-10.576
▁Morgan	-10.5763
▁Chi	-10.5765
▁counter	-10.5771
▁frame	-10.5772
▁thousands	-10.5776
▁Moon	-10.5779
▁weekly	-10.578
▁Alabama	-10.5782
ford	-10.5784
▁soundtrack	-10.5785
▁edited	-10.5792
▁graduating	-10.5797
▁teachers	-10.5803
▁daughters	-10.5807
ek	-10.581
▁decline	-10.5811
▁tennis	-10.5815
▁medieval	-10.5817
▁mobile	-10.5821
▁childhood	-10.5825
not	-10.5826
▁Seattle	-10.5839
▁competing	-10.5841
▁visitors	-10.5842
▁rose	-10.5846
▁talk	-10.585
▁opinion	-10.5853
▁locality	-10.5853
▁Lane	-10.5853
▁coverage	-10.5859
▁explained	-10.5859
▁limit	-10.5867
▁temporary	-10.5868
▁José	-10.5871
▁annually	-10.5876
bringing	-10.5882
▁capable	-10.5889
▁expression	-10.5895
▁Sound	-10.5907
▁Ken	-10.5911
▁Portugal	-10.5911
▁struck	-10.5912
▁journey	-10.5915
▁filmed	-10.5916
▁technique	-10.5917
▁replacing	-10.5918
▁mental	-10.5923
▁landing	-10.5924
▁branches	-10.593
▁Ann	-10.5939
▁artistic	-10.5942
▁Sa	-10.5947
▁vessels	-10.5953
▁classic	-10.5965
▁strongly	-10.5966
ment	-10.5969
▁Ed	-10.5976
▁secure	-10.5977
▁Gulf	-10.5981
▁DNA	-10.5982
▁universities	-10.5985
▁message	-10.5985
▁filled	-10.5987
▁What	-10.5992
▁Now	-10.5992
▁concrete	-10.5995
▁authors	-10.5995
▁testing	-10.5997
▁Eric	-10.6003
▁processes	-10.6008
▁ago	-10.6019
▁Convention	-10.6023
▁divisions	-10.6024
▁note	-10.6024
▁Defense	-10.6027
▁fishing	-10.6027
▁Campbell	-10.603
▁Metro	-10.6034
▁Hispanic	-10.6036
▁bad	-10.604
▁Hungarian	-10.604
lo	-10.6043
▁camera	-10.6058
▁Ph	-10.6061
▁squadron	-10.6063
▁web	-10.6064
▁hot	-10.607
▁grand	-10.6072
▁inter	-10.6075
▁differences	-10.6077
▁helping	-10.6078
▁Six	-10.6078
▁Silver	-10.6086
▁Da	-10.6088
▁Agency	-10.6088
chi	-10.6094
▁Du	-10.6099
▁versus	-10.6112
▁losses	-10.6114
▁strategy	-10.6116
▁spoke	-10.612
▁penalty	-10.6123
▁Kevin	-10.6131
▁turns	-10.6131
▁benefit	-10.6131
▁Mrs	-10.6132
▁instruments	-10.6133
▁Ho	-10.6134
▁lieutenant	-10.6135
▁fund	-10.6135
▁Upper	-10.6136
▁Sarah	-10.6139
▁Chairman	-10.6147
▁Test	-10.6152
▁Nick	-10.6153
▁entering	-10.6153
▁surviving	-10.6155
ski	-10.6157
▁counties	-10.6158
▁Ch	-10.6158
▁Malaysia	-10.6163
▁plane	-10.6163
▁banks	-10.6163
▁affairs	-10.6164
▁Dean	-10.6166
▁requires	-10.6167
▁executed	-10.617
▁Your	-10.6171
▁arrest	-10.6178
▁Vienna	-10.6179
▁actors	-10.6179
▁drew	-10.618
▁completion	-10.6182
han	-10.619
ting	-10.6191
▁DC	-10.6192
▁debate	-10.6199
▁Iron	-10.6201
season	-10.6205
▁requirements	-10.6208
▁grant	-10.6208
▁der	-10.6209
▁happened	-10.621
▁x	-10.621
wing	-10.6213
▁Far	-10.6219
▁downtown	-10.622
▁Wright	-10.622
▁celebrated	-10.6224
▁option	-10.6226
▁considerable	-10.6232
▁surrounded	-10.6233
▁Cleveland	-10.6233
▁Ryan	-10.6236
▁donated	-10.6238
head	-10.6242
▁lasted	-10.6243
▁studying	-10.6248
▁Pittsburgh	-10.6249
▁Thompson	-10.625
▁broad	-10.6253
▁Chart	-10.6254
za	-10.6258
ce	-10.626
▁questions	-10.6262
▁Kennedy	-10.6263
▁protest	-10.6269
▁parliamentary	-10.627
▁picture	-10.6271
▁novels	-10.6272
▁Design	-10.6275
▁Athletic	-10.628
▁indicated	-10.6284
ny	-10.629
▁portrayed	-10.6291
▁representation	-10.6293
▁Champion	-10.6293
▁da	-10.6295
▁Peace	-10.6295
▁reputation	-10.6303
▁Donald	-10.6307
▁falls	-10.631
▁manner	-10.6314
▁Franklin	-10.6318
▁Back	-10.6322
▁Marie	-10.6322
▁genre	-10.6325
▁acted	-10.6332
▁cards	-10.6336
▁Wall	-10.6336
▁Ba	-10.6338
▁column	-10.6338
▁vocal	-10.6338
▁Champions	-10.6346
▁Part	-10.6347
▁rival	-10.6358
▁Broadway	-10.6366
▁meets	-10.6368
▁constant	-10.6375
▁fan	-10.6375
▁element	-10.6376
▁suspended	-10.6379
▁effectively	-10.638
▁Christopher	-10.6387
▁experiences	-10.6397
▁Fund	-10.64
▁slow	-10.64
▁landscape	-10.6402
▁Stewart	-10.6411
▁pick	-10.6416
▁sentenced	-10.6418
▁Senator	-10.6423
▁wave	-10.6438
▁depth	-10.644
▁accounts	-10.644
▁Unlike	-10.6441
si	-10.6445
▁Baltimore	-10.6447
▁am	-10.6452
▁hosts	-10.6452
▁designer	-10.6452
▁guitarist	-10.6455
▁involvement	-10.6463
▁inner	-10.6464
▁components	-10.6464
▁expedition	-10.6469
▁progress	-10.6472
▁AD	-10.6474
▁Nelson	-10.648
▁nations	-10.6484
▁Jordan	-10.6485
▁Daily	-10.6487
▁Place	-10.649
▁survey	-10.6492
▁equipped	-10.6493
▁Authority	-10.6502
▁Within	-10.6506
▁hill	-10.6509
▁spoken	-10.6511
▁venue	-10.6529
language	-10.653
▁Su	-10.6531
▁mode	-10.6534
▁forming	-10.6538
▁papers	-10.6543
ye	-10.6554
▁controversial	-10.6556
▁participation	-10.6566
General	-10.6568
▁worth	-10.6577
▁NBA	-10.6581
▁emergency	-10.6581
▁colour	-10.6582
▁Princess	-10.6585
▁hair	-10.6593
▁Movement	-10.6594
▁wild	-10.6596
▁occasionally	-10.6598
▁attributed	-10.6605
▁Who	-10.6605
▁Heart	-10.6605
▁conduct	-10.6609
mann	-10.6613
▁Originally	-10.6617
▁learn	-10.6621
era	-10.6622
▁Bangladesh	-10.6622
▁chapter	-10.6626
▁widespread	-10.6629
▁suicide	-10.663
▁ruling	-10.6659
▁Hills	-10.666
▁cold	-10.6665
▁Yu	-10.6667
▁Express	-10.6669
▁treated	-10.6671
▁Around	-10.6674
▁Brothers	-10.6676
▁Or	-10.6676
▁Bruce	-10.6683
▁anything	-10.6685
An	-10.6688
▁mouth	-10.669
▁visiting	-10.6692
so	-10.6699
▁Dance	-10.6706
▁Alfred	-10.6709
bo	-10.671
▁depending	-10.6712
▁Austin	-10.6714
▁Thailand	-10.6717
▁Bad	-10.6721
▁Pre	-10.6726
▁pandemic	-10.6731
▁associate	-10.6736
▁accept	-10.6736
▁injuries	-10.6736
style	-10.6737
?"	-10.674
▁Trade	-10.6746
▁illegal	-10.6756
▁Dallas	-10.6756
led	-10.6757
▁chapel	-10.6759
lu	-10.676
ous	-10.6762
more	-10.6763
air	-10.6765
▁mill	-10.6766
▁infrastructure	-10.6771
▁charts	-10.6774
▁Week	-10.6779
▁eleven	-10.6781
▁heads	-10.6782
▁tie	-10.6783
▁departure	-10.6785
▁Robinson	-10.6785
▁consider	-10.6786
▁Adams	-10.6791
▁+	-10.6791
▁recordings	-10.6792
▁Cathedral	-10.6793
▁Baron	-10.6799
▁Hungary	-10.6801
▁Arkansas	-10.6804
▁modified	-10.6805
les	-10.6806
▁relief	-10.6808
▁Medicine	-10.6815
▁grown	-10.6815
▁crowd	-10.6825
▁Knight	-10.6825
▁commune	-10.6826
▁thousand	-10.6826
▁recommended	-10.6827
▁Death	-10.6827
▁platforms	-10.6829
▁soccer	-10.6832
▁Here	-10.6833
▁Brooklyn	-10.6836
▁Dave	-10.684
No	-10.6844
▁rounds	-10.6849
▁Taiwan	-10.6852
▁Orthodox	-10.6854
minute	-10.6868
such	-10.6876
▁arm	-10.6879
▁ill	-10.6879
▁somewhat	-10.6881
▁moment	-10.6883
▁attracted	-10.6888
ini	-10.6892
▁minimum	-10.6898
▁thirty	-10.6902
con	-10.6906
▁Bachelor	-10.6909
▁Ha	-10.691
▁describe	-10.691
▁emerged	-10.6913
▁Karl	-10.6914
▁cousin	-10.6916
▁medals	-10.6917
▁preserved	-10.6918
ish	-10.6918
▁markets	-10.6919
▁proper	-10.6925
▁voting	-10.6931
▁indigenous	-10.6933
▁reportedly	-10.6933
▁Russell	-10.6935
▁posted	-10.6937
▁Finland	-10.694
▁Portland	-10.6957
▁stream	-10.6961
▁Ward	-10.6964
▁remainder	-10.6967
▁youngest	-10.6969
▁FIFA	-10.6969
▁amateur	-10.697
▁ranking	-10.6972
▁Instead	-10.6973
▁steam	-10.6975
▁vessel	-10.6981
▁dam	-10.6982
▁trading	-10.6984
▁safe	-10.6985
▁license	-10.6989
▁Canal	-10.6989
▁changing	-10.6993
▁visible	-10.6993
est	-10.6997
▁Staff	-10.6999
▁themes	-10.7002
▁scholar	-10.7002
▁Graham	-10.7002
▁tall	-10.7014
▁CBS	-10.7016
▁plus	-10.7016
▁infantry	-10.702
▁rapidly	-10.7028
▁huge	-10.7029
▁link	-10.7038
▁feed	-10.7039
▁Energy	-10.7039
▁employment	-10.7045
▁Story	-10.7046
▁distinguished	-10.7046
▁demolished	-10.7048
▁assist	-10.7051
▁skin	-10.7058
▁drawing	-10.7059
▁contested	-10.7064
▁Islam	-10.7064
later	-10.7067
▁tenure	-10.7067
▁Victorian	-10.7076
▁instrumental	-10.7083
▁Birmingham	-10.7086
▁regime	-10.7087
▁shares	-10.7088
▁hip	-10.7092
▁Shortly	-10.7093
▁underground	-10.7093
▁tribe	-10.7094
▁UEFA	-10.7095
▁colony	-10.7102
▁satellite	-10.7103
▁output	-10.7106
▁entertainment	-10.7107
▁knew	-10.7107
▁gene	-10.7108
▁elevation	-10.7111
▁Spring	-10.7111
▁carbon	-10.7119
▁Lu	-10.712
▁architectural	-10.7124
▁audio	-10.7128
▁Richmond	-10.7134
▁Egyptian	-10.7138
▁rapid	-10.7139
▁aimed	-10.7144
star	-10.7152
▁Our	-10.7154
▁defending	-10.7157
▁traveled	-10.7161
▁seek	-10.7166
▁Roy	-10.7167
▁Arena	-10.7168
▁coalition	-10.7168
▁document	-10.7169
ray	-10.7172
▁classification	-10.7173
▁manufacturing	-10.7179
▁eyes	-10.7184
▁fly	-10.7186
▁Information	-10.7188
▁Boys	-10.7194
▁continuing	-10.72
▁directors	-10.7209
▁compilation	-10.7209
car	-10.721
▁controversy	-10.7212
▁whereas	-10.7213
▁Norman	-10.7222
▁maintenance	-10.7228
▁Romania	-10.723
▁frequency	-10.7236
▁Latino	-10.7237
▁absence	-10.7238
▁rebuilt	-10.7241
▁cabinet	-10.7245
▁Lower	-10.7249
▁Girl	-10.7251
▁ratio	-10.7256
point	-10.7258
▁concerned	-10.726
▁honour	-10.7262
▁NBC	-10.7264
▁lists	-10.7264
▁doctor	-10.7269
ani	-10.7269
▁mountains	-10.727
▁diameter	-10.7272
▁movements	-10.7274
▁threatened	-10.7276
▁facing	-10.7278
▁sentence	-10.7279
▁Am	-10.7281
▁spending	-10.7285
▁Culture	-10.7285
▁occasions	-10.7286
▁Phil	-10.7288
▁characterized	-10.7292
▁Works	-10.7293
▁secured	-10.7293
▁extent	-10.7295
▁premiere	-10.7296
▁cable	-10.7298
▁duo	-10.7299
▁inaugural	-10.7301
▁householder	-10.7311
▁walk	-10.7312
▁meetings	-10.7314
▁Vol	-10.7315
▁recovered	-10.7315
▁gradually	-10.7318
▁Capital	-10.732
▁descent	-10.7322
▁territories	-10.7329
q	-10.7337
▁Jo	-10.7343
▁cm	-10.7346
▁relocated	-10.7346
▁everything	-10.7361
▁claiming	-10.7365
▁Murray	-10.7366
▁Fellow	-10.7366
▁longest	-10.7369
▁lap	-10.7372
▁turning	-10.7373
▁supporters	-10.7374
▁representatives	-10.7374
▁Trophy	-10.7379
▁publisher	-10.7381
▁suffering	-10.7383
dy	-10.7384
hour	-10.7388
▁Madrid	-10.7389
||	-10.7392
mina	-10.7403
▁solid	-10.7404
▁motor	-10.7406
scale	-10.7409
▁Dam	-10.7412
▁erected	-10.7416
▁statue	-10.7417
▁Mill	-10.7417
▁Jerusalem	-10.742
▁Construction	-10.7422
▁struggle	-10.7424
▁tank	-10.7426
▁Windows	-10.7432
▁innings	-10.7433
▁surgery	-10.7435
▁transition	-10.7439
▁whilst	-10.7444
▁vs	-10.7447
▁tools	-10.7449
▁newspapers	-10.7449
ive	-10.7451
▁photo	-10.7451
▁greatly	-10.7456
▁super	-10.7457
▁publicly	-10.7459
▁commanded	-10.746
▁afterwards	-10.7462
▁speak	-10.7462
▁Base	-10.7465
▁Glasgow	-10.7468
▁Tournament	-10.747
Until	-10.7472
▁Stanley	-10.7475
▁Books	-10.7476
▁Jeff	-10.7476
▁frequent	-10.7478
▁Apple	-10.7481
▁behalf	-10.7487
▁faith	-10.7487
▁Treaty	-10.7489
▁pool	-10.7492
▁competitive	-10.7498
▁viewers	-10.7504
La	-10.7509
▁agriculture	-10.7515
▁contribution	-10.7518
▁Marshall	-10.7519
▁mile	-10.752
▁cancelled	-10.7527
▁creative	-10.7528
▁begun	-10.7529
final	-10.7536
▁seed	-10.7537
▁Defence	-10.7539
▁resolution	-10.7546
▁Carlos	-10.7546
▁businessman	-10.7549
▁attending	-10.755
▁Matthew	-10.7556
▁send	-10.7564
▁Anti	-10.7574
over	-10.7578
▁participants	-10.758
▁obtain	-10.7582
▁definition	-10.7591
▁activist	-10.7593
▁phone	-10.7595
ol	-10.7596
der	-10.7598
▁Ian	-10.7599
▁Les	-10.7602
her	-10.7603
▁agencies	-10.7607
▁external	-10.7608
ard	-10.7608
▁commented	-10.7615
▁organ	-10.7615
▁Just	-10.7615
▁Muhammad	-10.7617
▁Player	-10.7617
▁dog	-10.7618
▁vision	-10.7618
▁massive	-10.762
▁identify	-10.762
▁Alice	-10.7621
▁drop	-10.7627
▁abroad	-10.7631
▁Labor	-10.7633
▁segment	-10.7633
▁Pat	-10.7634
▁Jason	-10.7635
▁Carter	-10.7636
▁unusual	-10.7641
▁implemented	-10.7642
▁intersection	-10.7646
Y	-10.7649
▁defence	-10.765
▁organised	-10.7653
▁thing	-10.7664
Man	-10.7666
▁discovery	-10.7673
▁uncle	-10.7674
▁Morris	-10.7675
▁protests	-10.7677
yan	-10.7679
▁encouraged	-10.7684
▁Johnny	-10.7687
▁assault	-10.7687
▁gay	-10.7689
▁watch	-10.769
▁Training	-10.7696
▁instrument	-10.77
je	-10.7703
▁Inter	-10.7705
▁hearing	-10.7705
▁beach	-10.7707
▁Fair	-10.771
▁hundreds	-10.7711
▁Mediterranean	-10.7718
▁forests	-10.7721
▁seeking	-10.7722
▁Chile	-10.7723
▁Warner	-10.7727
▁fruit	-10.773
▁qualify	-10.773
▁palace	-10.7734
▁memorial	-10.7743
▁conservative	-10.7743
▁viewed	-10.7747
▁Shah	-10.7749
▁concerts	-10.775
▁attorney	-10.7752
▁domain	-10.7754
▁panel	-10.7754
▁horses	-10.7756
▁transportation	-10.7758
va	-10.7759
▁centers	-10.776
▁writes	-10.776
▁Jay	-10.7761
▁convention	-10.7766
▁gone	-10.7768
▁voters	-10.7771
▁amongst	-10.7775
▁pages	-10.7778
▁Belgian	-10.7781
▁establishing	-10.7784
▁Judge	-10.7787
▁Grade	-10.779
▁Orange	-10.7792
▁patient	-10.7794
▁earning	-10.7795
▁monument	-10.7798
▁networks	-10.7799
▁concern	-10.78
▁Economic	-10.7805
ger	-10.7806
▁Round	-10.7808
▁Mission	-10.7811
▁championships	-10.7814
▁printed	-10.7815
▁En	-10.7822
US	-10.7822
▁characteristics	-10.7826
▁grandfather	-10.7827
▁YouTube	-10.7828
▁UN	-10.7829
New	-10.7831
▁Serbia	-10.7837
▁belonged	-10.7842
▁ceased	-10.7847
▁touchdown	-10.7847
▁crash	-10.7848
▁die	-10.7849
ier	-10.7849
▁SR	-10.785
▁Utah	-10.7851
▁circuit	-10.7853
▁schedule	-10.7854
▁Tower	-10.7854
▁finals	-10.7857
▁poems	-10.7859
▁percentage	-10.786
if	-10.7881
kar	-10.789
▁spend	-10.7891
▁Dark	-10.7895
▁producers	-10.7896
▁tell	-10.7897
▁component	-10.7898
▁rescue	-10.7899
▁lay	-10.7901
▁stable	-10.7901
▁suit	-10.7902
▁Si	-10.7902
▁Jimmy	-10.7915
▁friendly	-10.7915
▁customers	-10.7929
▁dismissed	-10.7929
▁restoration	-10.7931
▁constitution	-10.7931
▁settlers	-10.7935
▁immediate	-10.7938
▁Victor	-10.7938
▁Benjamin	-10.794
▁everyone	-10.7942
▁toured	-10.7942
▁boats	-10.7946
▁completing	-10.7946
▁Racing	-10.7947
▁substantial	-10.795
finals	-10.7952
▁relationships	-10.7956
▁detailed	-10.7956
▁ninth	-10.7958
mm	-10.7959
▁athletes	-10.7962
▁Along	-10.7965
▁See	-10.797
▁Hart	-10.7975
▁Charlotte	-10.798
▁volumes	-10.7983
▁responded	-10.7984
▁Theater	-10.7987
!"	-10.7989
▁opponents	-10.7991
end	-10.7991
ship	-10.7993
ad	-10.7999
▁researchers	-10.8
▁wine	-10.8005
▁opportunities	-10.8006
▁blocks	-10.8016
▁fled	-10.8017
▁missions	-10.8024
▁normally	-10.8025
▁enjoyed	-10.8026
▁partially	-10.8032
▁benefits	-10.8039
▁Baker	-10.8039
ot	-10.8041
▁animated	-10.8042
▁Bible	-10.8043
▁advertising	-10.8044
▁Manhattan	-10.8045
▁apparently	-10.8048
▁exposed	-10.8048
▁picked	-10.8052
▁Natural	-10.8052
▁missed	-10.8056
▁runner	-10.8058
▁Farm	-10.8059
▁possibility	-10.806
▁weekend	-10.806
▁integrated	-10.806
▁file	-10.8063
▁exception	-10.8065
▁deployed	-10.8067
▁principle	-10.8067
▁Orleans	-10.8078
▁spiritual	-10.8081
▁Delhi	-10.8081
▁description	-10.8081
▁destruction	-10.8083
▁Late	-10.8084
▁possession	-10.8084
▁initiative	-10.8085
▁fit	-10.8085
▁bit	-10.8085
▁wear	-10.8086
▁tests	-10.8089
▁displayed	-10.8092
▁Such	-10.8095
▁spirit	-10.8098
▁occasion	-10.8098
▁assets	-10.8103
▁Initially	-10.8109
▁Cricket	-10.811
▁sole	-10.8111
▁FA	-10.8112
▁rising	-10.8113
▁marketing	-10.8114
▁sees	-10.8116
▁affiliated	-10.8119
▁Seven	-10.812
▁Members	-10.8121
▁texts	-10.8125
▁Nova	-10.8126
▁Nicholas	-10.8128
▁experimental	-10.8129
▁Finnish	-10.8134
▁talent	-10.8136
▁easy	-10.814
▁passage	-10.8141
▁jobs	-10.8142
▁subsidiary	-10.8151
▁withdrew	-10.8152
▁dominated	-10.8154
▁Rangers	-10.8162
▁Maine	-10.8163
▁transmission	-10.8165
▁Cooper	-10.8165
▁neither	-10.8167
▁row	-10.8177
▁apart	-10.8178
▁mounted	-10.8179
▁ongoing	-10.8181
▁print	-10.8182
▁Having	-10.8182
▁Serbian	-10.8182
▁choose	-10.8183
▁abuse	-10.8185
▁substitute	-10.819
▁Girls	-10.8191
▁Milan	-10.8192
▁anyone	-10.8192
bar	-10.8195
▁immigrants	-10.8195
▁broadcasting	-10.8204
▁processing	-10.8208
▁Historical	-10.8213
▁buy	-10.8217
▁Soon	-10.8218
▁concentration	-10.8224
▁count	-10.8224
▁bid	-10.8227
▁Mitchell	-10.8228
ary	-10.8228
▁junction	-10.8231
▁beating	-10.8236
▁supplies	-10.8236
▁waters	-10.8239
gen	-10.825
▁none	-10.8253
▁terminal	-10.8257
▁principles	-10.8257
▁merchant	-10.8258
▁categories	-10.8265
▁Plan	-10.8267
▁collections	-10.8268
▁videos	-10.8268
▁pursue	-10.827
▁Tri	-10.8274
▁timber	-10.8277
▁understand	-10.8277
▁corporate	-10.828
▁discussed	-10.8281
▁Beijing	-10.8284
▁Limited	-10.8285
▁matters	-10.829
▁drugs	-10.8298
▁Last	-10.8298
▁Furthermore	-10.8304
▁Virgin	-10.8307
▁exhibited	-10.8308
▁deaths	-10.8311
▁Hans	-10.8312
▁requested	-10.8313
▁revenue	-10.8315
▁Greater	-10.8324
▁Warren	-10.8326
▁Fine	-10.8328
▁apply	-10.833
▁diverse	-10.833
▁EU	-10.8335
í	-10.8341
▁exists	-10.8343
▁Together	-10.8344
▁Code	-10.8349
▁keeping	-10.8353
▁Ram	-10.8355
▁Chamber	-10.8357
▁judges	-10.8358
▁throne	-10.836
▁soldier	-10.836
▁wedding	-10.8361
▁Romanian	-10.8362
▁relation	-10.8365
▁Andy	-10.8365
▁suburb	-10.8365
▁housed	-10.8369
▁rivers	-10.837
▁Arabic	-10.837
ell	-10.8371
idae	-10.8372
▁swimming	-10.8372
▁apartment	-10.8374
▁guilty	-10.8377
▁adults	-10.8377
▁Universal	-10.8392
▁Hindu	-10.8392
▁Hampshire	-10.8392
▁periods	-10.8398
▁Caribbean	-10.8399
▁circumstances	-10.84
▁Lanka	-10.84
▁Transport	-10.8403
▁permission	-10.8403
bi	-10.8404
▁lose	-10.8406
ino	-10.8407
▁belonging	-10.8408
▁intention	-10.8409
▁cemetery	-10.8409
▁Parker	-10.8415
▁legislative	-10.8415
▁margin	-10.8416
▁sessions	-10.842
▁dual	-10.8423
▁operational	-10.8425
elected	-10.8432
▁borough	-10.8434
▁Syria	-10.8434
▁electrical	-10.8435
▁assisted	-10.8435
▁Yorkshire	-10.8436
▁tail	-10.8437
▁Organization	-10.844
▁fictional	-10.8441
▁acquisition	-10.8441
▁symbol	-10.8442
▁chamber	-10.8443
▁styles	-10.8447
▁Rico	-10.8449
▁conclusion	-10.8449
▁roots	-10.8453
▁Charlie	-10.8457
▁Bengal	-10.8458
▁kingdom	-10.8461
▁scholarship	-10.8462
▁closer	-10.8464
▁Rev	-10.8465
▁Throughout	-10.8472
▁exclusively	-10.8474
▁Songs	-10.8476
▁connecting	-10.8478
▁generated	-10.8481
▁Peru	-10.849
▁remove	-10.8491
▁Wild	-10.8492
▁indicates	-10.8495
▁reveals	-10.8497
che	-10.8501
▁Billy	-10.8501
▁minority	-10.8505
jo	-10.8505
ists	-10.8505
▁rain	-10.8511
▁Liga	-10.8511
ns	-10.8513
▁Count	-10.8513
▁Gary	-10.8513
▁Basketball	-10.8516
▁Municipality	-10.8516
▁resident	-10.8517
▁Wrestling	-10.8518
▁traditions	-10.8522
▁sculpture	-10.8524
▁Indians	-10.8527
▁agents	-10.8527
▁playoffs	-10.853
▁ready	-10.8533
He	-10.8537
▁extreme	-10.8539
▁civilian	-10.8551
▁opponent	-10.8553
▁Del	-10.8556
▁desire	-10.8562
▁Sar	-10.8565
▁Oliver	-10.8566
▁battalion	-10.8566
▁add	-10.8569
▁Barry	-10.8572
▁Afghanistan	-10.8578
▁favour	-10.8578
ola	-10.8579
▁funded	-10.8582
▁Iranian	-10.8583
related	-10.8587
Re	-10.859
▁respective	-10.8591
▁scientists	-10.8592
Q	-10.8592
du	-10.8602
▁advice	-10.8605
▁personality	-10.8606
▁outer	-10.861
▁mathematics	-10.8615
FM	-10.862
▁Ki	-10.8627
▁Commissioner	-10.8627
part	-10.8629
▁Section	-10.863
▁Clinton	-10.8635
▁l	-10.8637
▁charity	-10.8643
▁Mu	-10.8647
▁crimes	-10.8647
▁Nigeria	-10.8647
▁channels	-10.865
▁rated	-10.8651
▁Po	-10.8651
▁NHL	-10.8654
▁asks	-10.8655
▁provinces	-10.8656
round	-10.8661
▁alliance	-10.8668
▁Fe	-10.8671
▁decisions	-10.8675
▁closing	-10.8675
▁narrative	-10.8676
▁mention	-10.8676
game	-10.8677
▁doesn	-10.8679
▁Fred	-10.8682
▁traded	-10.8683
▁nearest	-10.8684
▁unsuccessful	-10.8685
▁focuses	-10.8686
▁shore	-10.8687
▁suitable	-10.8687
▁Vancouver	-10.8688
▁mix	-10.869
▁Tan	-10.8693
▁Pierre	-10.8696
▁Draft	-10.8699
▁useful	-10.8704
▁clinical	-10.8704
▁beetle	-10.8706
▁earth	-10.8709
▁twin	-10.8714
izing	-10.8717
▁partly	-10.8719
▁Mi	-10.8725
▁illness	-10.8731
▁retail	-10.874
▁drummer	-10.8745
▁sand	-10.875
▁Saudi	-10.8755
▁Socialist	-10.8756
team	-10.8757
▁micro	-10.8758
▁describing	-10.8759
▁Digital	-10.876
▁Zone	-10.877
▁regulations	-10.877
▁Much	-10.877
use	-10.8771
▁lowest	-10.8773
formerly	-10.8774
gar	-10.8775
▁isolated	-10.8776
▁beautiful	-10.8777
left	-10.8784
run	-10.8787
▁balance	-10.8791
▁truth	-10.8794
▁crossed	-10.8797
▁Cultural	-10.88
▁survive	-10.88
▁Fleet	-10.8801
▁decides	-10.8801
▁Baptist	-10.8805
▁habitat	-10.8806
mar	-10.8807
▁populations	-10.8808
▁supports	-10.8824
▁false	-10.8825
sk	-10.8826
▁driven	-10.8827
▁Val	-10.8831
▁Harrison	-10.8831
▁touring	-10.8831
▁assists	-10.884
▁falling	-10.8842
▁suggest	-10.8842
▁boundaries	-10.8843
▁Anglo	-10.8846
▁Pop	-10.8857
profit	-10.8858
▁parent	-10.8861
▁Se	-10.8865
Star	-10.8866
type	-10.8868
▁Fu	-10.8876
▁convicted	-10.8876
▁Con	-10.8879
▁Down	-10.8881
ev	-10.8883
▁submitted	-10.8884
▁belief	-10.8884
▁pain	-10.8885
▁Friday	-10.8885
▁romantic	-10.8889
▁speaking	-10.889
vi	-10.8892
▁landed	-10.8901
▁seeing	-10.8908
▁essential	-10.8909
▁sailed	-10.891
▁Pictures	-10.8911
▁dispute	-10.8917
▁produces	-10.8918
▁ranks	-10.8926
lan	-10.8927
▁residing	-10.8928
▁reduction	-10.8933
▁Democrats	-10.8936
▁fort	-10.8938
▁Germans	-10.894
▁cash	-10.8941
▁partners	-10.8941
▁farmers	-10.8945
▁Therefore	-10.8954
▁accessible	-10.8954
zi	-10.8958
▁Wang	-10.8963
ich	-10.8966
▁initiated	-10.8969
";	-10.8969
▁depicted	-10.8969
▁battery	-10.8969
▁jurisdiction	-10.8971
▁Peninsula	-10.8972
▁appropriate	-10.8974
▁legs	-10.8975
▁strategic	-10.8977
▁Tu	-10.8977
▁defended	-10.8978
▁Falls	-10.8979
▁Dead	-10.8979
▁enable	-10.8982
▁signs	-10.8987
▁defend	-10.8988
▁b	-10.899
▁eldest	-10.8994
▁filming	-10.8995
▁Action	-10.8999
▁Jonathan	-10.9001
▁cinema	-10.9009
▁Attorney	-10.901
▁crown	-10.9012
▁Abbey	-10.902
▁Dakota	-10.9024
▁exercise	-10.9024
▁originated	-10.9031
▁aim	-10.9034
▁continuous	-10.9035
▁Hudson	-10.9035
▁arrangement	-10.9035
▁Adelaide	-10.9037
ura	-10.9038
▁Munich	-10.9041
▁Note	-10.9042
▁copy	-10.9042
▁Studio	-10.9043
▁Evans	-10.9047
▁photography	-10.9048
▁cattle	-10.9051
▁Challenge	-10.9064
▁Hunter	-10.9067
▁drafted	-10.9068
▁Cuba	-10.9069
▁Villa	-10.907
▁temperatures	-10.9071
ze	-10.9072
▁apparent	-10.9073
▁clearly	-10.9075
▁Video	-10.9075
down	-10.9076
▁Catherine	-10.9076
▁participating	-10.9083
▁Unit	-10.9086
▁honorary	-10.9087
▁string	-10.9088
▁tribes	-10.9091
▁cup	-10.9093
▁Voivodeship	-10.9093
▁wings	-10.9094
▁cargo	-10.9094
▁repeated	-10.9094
▁Bristol	-10.9099
▁violent	-10.91
▁Broadcasting	-10.9102
▁Philippine	-10.9104
This	-10.9106
▁Schools	-10.9106
▁wants	-10.9106
▁sponsored	-10.9107
▁Wayne	-10.9109
▁discussion	-10.9111
▁Further	-10.9112
▁Trinity	-10.9114
▁wrestling	-10.9114
▁bird	-10.9123
▁Wars	-10.9125
▁manage	-10.913
▁Wu	-10.9131
▁Nation	-10.9132
▁collaborated	-10.9134
ney	-10.9134
▁perfect	-10.914
▁ride	-10.9143
▁eggs	-10.9146
▁Turner	-10.9152
▁tend	-10.9152
ik	-10.9152
▁roster	-10.9154
▁locally	-10.9154
▁resignation	-10.9154
▁concerning	-10.9155
winning	-10.9159
▁marry	-10.916
▁movies	-10.9162
▁capita	-10.9164
tel	-10.9166
▁conservation	-10.917
tu	-10.9178
▁repair	-10.9182
hi	-10.9195
ii	-10.9197
▁Alberta	-10.9198
▁merger	-10.92
▁doors	-10.9205
▁evolution	-10.9208
▁Romanized	-10.9209
▁Jazz	-10.9209
ci	-10.9213
▁Democrat	-10.9214
▁banned	-10.9214
▁orchestra	-10.9218
▁Communications	-10.9219
▁Lloyd	-10.9226
▁Ku	-10.9233
▁negotiations	-10.9233
▁involves	-10.9235
▁Century	-10.9235
▁steps	-10.9239
▁outbreak	-10.9241
▁jury	-10.9241
▁insurance	-10.9248
▁Pradesh	-10.9248
▁fighter	-10.9248
▁treaty	-10.9251
▁VI	-10.9251
▁terminus	-10.9253
▁spaces	-10.926
ang	-10.9261
▁Type	-10.9263
▁licensed	-10.9266
▁Son	-10.9267
▁wider	-10.9272
▁Athletics	-10.9276
▁operator	-10.9278
▁internationally	-10.9279
▁dangerous	-10.9279
▁Woman	-10.928
▁industries	-10.9282
▁Alaska	-10.9284
▁else	-10.9285
▁Bernard	-10.9288
art	-10.9289
▁dominant	-10.929
▁emperor	-10.929
▁wealthy	-10.9292
▁debt	-10.9293
▁Jacob	-10.9295
▁latest	-10.9297
▁coaching	-10.931
▁funeral	-10.9313
▁sequel	-10.9316
▁spin	-10.9324
po	-10.9327
▁constitutional	-10.9327
▁legislature	-10.933
▁Standard	-10.933
▁ban	-10.933
▁Phoenix	-10.9331
▁fair	-10.9338
▁bomb	-10.9339
▁significance	-10.9341
▁supposed	-10.9341
▁delivery	-10.9345
▁preparation	-10.9346
▁shift	-10.9353
▁Collins	-10.936
▁Years	-10.936
▁vast	-10.9363
▁overseas	-10.9364
ful	-10.9375
▁PhD	-10.9376
▁Armenian	-10.9381
ella	-10.9382
▁limits	-10.9383
ung	-10.9386
▁disc	-10.9388
▁moves	-10.9392
two	-10.9403
▁NY	-10.9406
families	-10.9408
▁net	-10.9408
▁wearing	-10.9409
ker	-10.9415
▁photographs	-10.9416
▁Herbert	-10.9419
▁borders	-10.9421
▁ties	-10.9422
▁promoting	-10.9433
▁Urban	-10.9438
owned	-10.9439
▁flights	-10.944
▁fitted	-10.9442
▁Cook	-10.9444
que	-10.9445
▁fear	-10.9447
▁Sport	-10.9454
▁extend	-10.9458
▁bachelor	-10.9459
▁hope	-10.9461
▁contributing	-10.9462
▁Persian	-10.9469
▁execution	-10.947
▁governments	-10.9472
▁Shi	-10.9473
▁enrolled	-10.9475
▁clothing	-10.9477
▁demonstrated	-10.9478
▁shall	-10.9486
▁Muslims	-10.9487
▁Die	-10.9491
▁releases	-10.9493
▁travelled	-10.9496
▁Tigers	-10.9499
▁Dick	-10.9501
▁RAF	-10.9501
▁departed	-10.9503
▁fifteen	-10.9504
▁Short	-10.9508
You	-10.9508
▁Season	-10.9509
▁fee	-10.951
▁mechanism	-10.9511
▁Notable	-10.9511
▁traditionally	-10.9511
▁Jerry	-10.9518
▁Guinea	-10.9526
▁Buddhist	-10.9527
▁plate	-10.9527
▁Municipal	-10.953
▁fastest	-10.9531
▁eligible	-10.9534
▁soft	-10.9543
but	-10.9544
▁patterns	-10.9544
▁Political	-10.9548
▁breaking	-10.9551
▁implementation	-10.9554
▁Common	-10.9555
▁physics	-10.9556
▁Storm	-10.9556
▁deemed	-10.9558
▁conversion	-10.9563
▁sang	-10.9564
▁affect	-10.9565
▁soul	-10.9568
▁origins	-10.9568
▁locomotives	-10.9571
▁Market	-10.9571
ex	-10.9571
▁moral	-10.9575
▁Males	-10.9584
making	-10.9585
▁reaches	-10.9585
▁Azerbaijan	-10.9587
▁Barcelona	-10.9587
▁Control	-10.9593
▁Singles	-10.9597
▁tunnel	-10.9599
▁connections	-10.96
▁giant	-10.9607
▁siege	-10.9607
▁Borough	-10.9607
▁ranging	-10.9607
▁editions	-10.9612
▁exposure	-10.9612
▁Mal	-10.9615
▁Glen	-10.9615
▁Allied	-10.9616
▁solar	-10.9617
ring	-10.9618
died	-10.9618
▁Mid	-10.9622
▁variant	-10.9632
▁expand	-10.9634
▁Terry	-10.9638
▁trail	-10.9646
▁Gray	-10.9647
▁approached	-10.9649
▁Dream	-10.9653
née	-10.9654
▁Guy	-10.966
▁venture	-10.9662
▁links	-10.9668
ised	-10.9669
▁Sultan	-10.9671
▁circle	-10.9674
▁Hawaii	-10.9675
▁Branch	-10.9675
▁Luis	-10.9677
▁decorated	-10.9682
▁electricity	-10.9686
▁Vegas	-10.9686
dale	-10.969
▁Diocese	-10.9692
▁tribute	-10.9694
▁Assistant	-10.9696
▁Guardian	-10.97
▁pitch	-10.9703
sh	-10.9703
▁Barbara	-10.9704
▁manufactured	-10.9705
▁Athens	-10.9705
▁riding	-10.971
▁Gen	-10.9713
▁attempting	-10.9715
high	-10.9716
▁Guide	-10.9718
▁trust	-10.972
▁monastery	-10.972
▁certified	-10.9721
▁Admiral	-10.9722
▁Syrian	-10.9722
▁Kings	-10.9734
▁cooperation	-10.9734
▁Jon	-10.9741
▁indicating	-10.9743
▁weapon	-10.9745
▁usual	-10.9747
▁manufacturer	-10.9747
▁Brisbane	-10.9753
▁thereafter	-10.9753
▁imperial	-10.9754
place	-10.9754
▁restricted	-10.9755
▁Symphony	-10.9757
▁Costa	-10.9757
▁Abu	-10.9758
▁acres	-10.9759
▁PC	-10.9759
▁winds	-10.9759
shi	-10.9761
▁Comics	-10.9761
▁devoted	-10.9764
▁exact	-10.9767
▁municipalities	-10.977
▁rarely	-10.977
▁sisters	-10.9771
▁conventional	-10.9771
▁Ya	-10.9772
▁DJ	-10.9772
▁mechanical	-10.9773
net	-10.9776
▁colors	-10.9779
▁fresh	-10.978
▁Finally	-10.9783
▁compiled	-10.9783
▁inherited	-10.979
▁communications	-10.9791
cha	-10.9793
▁expensive	-10.9797
▁managing	-10.9799
▁São	-10.9801
▁Industrial	-10.9801
inch	-10.9802
▁grows	-10.9803
▁increases	-10.9804
▁extensively	-10.9805
▁Parish	-10.9807
▁depression	-10.9812
▁seem	-10.9816
▁Auckland	-10.9817
ran	-10.9819
▁farming	-10.9822
▁shell	-10.9823
▁correct	-10.9827
▁hunting	-10.9844
▁baby	-10.9844
▁gang	-10.9845
▁placing	-10.985
▁Hugh	-10.9852
▁Ball	-10.9858
▁Pi	-10.9859
▁murdered	-10.9861
▁incumbent	-10.9862
▁corresponding	-10.9863
▁delayed	-10.9868
▁slaves	-10.9869
▁preferred	-10.987
▁liberal	-10.9873
▁Cal	-10.9874
▁diplomatic	-10.9876
stone	-10.988
▁elsewhere	-10.9885
ius	-10.9886
▁Father	-10.9886
▁machines	-10.9891
▁playoff	-10.9892
nes	-10.9895
▁Bi	-10.9899
▁Argentine	-10.99
min	-10.9903
*	-10.9903
▁exclusive	-10.9903
▁revolution	-10.9906
▁midfielder	-10.9908
▁express	-10.9909
▁bay	-10.9918
▁Norfolk	-10.992
▁Commons	-10.9921
▁perspective	-10.9921
▁inducted	-10.9923
▁Ron	-10.9929
▁Motor	-10.9929
▁Bal	-10.9929
▁wrong	-10.993
▁Food	-10.9932
▁clean	-10.9933
▁Collection	-10.9934
uk	-10.994
ster	-10.9944
▁columns	-10.9951
▁Stars	-10.9951
ut	-10.9953
▁Ni	-10.9955
gi	-10.9956
▁abolished	-10.9965
▁outstanding	-10.9966
▁Helen	-10.9969
▁Vincent	-10.9974
▁Roberts	-10.998
▁Rick	-10.9982
▁bound	-10.9984
▁magazines	-10.9986
▁unlike	-10.9987
▁shoot	-10.9989
▁alcohol	-10.999
▁looked	-10.9991
▁ward	-10.9993
▁Robin	-10.9995
▁Hu	-10.9999
op	-11.0002
▁mainstream	-11.0002
▁snow	-11.0002
▁Run	-11.0003
free	-11.0005
▁informed	-11.0006
▁marks	-11.0006
▁Ta	-11.001
▁tenth	-11.0012
▁Freedom	-11.0013
▁topics	-11.0015
▁sugar	-11.0019
▁Ver	-11.0019
▁Industry	-11.002
▁Rail	-11.0025
▁believes	-11.0027
▁Ice	-11.0028
▁Warsaw	-11.003
▁Ar	-11.003
▁Hope	-11.0031
▁summit	-11.0033
month	-11.0034
▁remote	-11.0035
▁layer	-11.0037
▁Tech	-11.0038
▁horror	-11.0042
▁specialized	-11.0062
▁tons	-11.0063
▁Language	-11.0064
▁Yale	-11.0065
▁genetic	-11.0066
▁recognised	-11.0071
▁Work	-11.0072
▁Finance	-11.0073
▁slowly	-11.0079
▁clan	-11.008
▁Mass	-11.0081
▁drivers	-11.0085
▁Drive	-11.0087
▁Ke	-11.0089
▁historically	-11.009
▁usage	-11.009
sch	-11.0091
▁Cincinnati	-11.0092
▁commenced	-11.0092
▁Col	-11.0096
ted	-11.0102
▁removal	-11.0104
▁pointed	-11.0106
▁maps	-11.011
ho	-11.0113
▁victim	-11.0114
▁pp	-11.0118
▁SS	-11.0118
▁simultaneously	-11.012
▁brigade	-11.0121
▁inspiration	-11.0122
▁truck	-11.0127
most	-11.0128
▁birthday	-11.0129
▁ticket	-11.0129
▁characteristic	-11.0135
ara	-11.0141
▁Territory	-11.0141
▁copper	-11.0144
▁coup	-11.0152
tz	-11.0152
▁Amsterdam	-11.0153
▁recalled	-11.0153
tan	-11.0156
▁shopping	-11.0157
fi	-11.0158
▁earn	-11.016
▁identical	-11.0162
▁Album	-11.0164
▁Those	-11.0164
▁linear	-11.0165
▁slave	-11.0166
▁Springs	-11.0169
▁Formula	-11.017
eh	-11.0173
▁Hebrew	-11.0176
▁saved	-11.0177
▁corruption	-11.0177
▁vary	-11.0179
▁Trail	-11.018
▁sounds	-11.018
▁reporting	-11.0189
▁Buffalo	-11.019
▁worship	-11.0193
▁festivals	-11.0195
▁vertical	-11.0201
▁flew	-11.0201
▁Saints	-11.0205
▁decide	-11.0205
ium	-11.0207
▁Classic	-11.0208
▁relevant	-11.0211
▁Next	-11.0211
▁prove	-11.0214
▁beauty	-11.0216
▁credits	-11.0216
▁legend	-11.0217
▁sitting	-11.0224
▁challenges	-11.0227
▁trials	-11.0231
red	-11.0235
▁symptoms	-11.0236
▁Derby	-11.0237
▁CE	-11.0237
▁difficulties	-11.0239
▁Kenya	-11.0242
▁elevated	-11.0243
▁Nepal	-11.0243
▁designation	-11.0243
▁ruler	-11.0244
▁emotional	-11.0245
▁Child	-11.0247
▁How	-11.0247
▁Salt	-11.0253
▁coins	-11.0255
▁thick	-11.0255
▁tanks	-11.0259
▁backing	-11.0259
▁reducing	-11.0264
▁biological	-11.0264
▁wealth	-11.0267
▁measured	-11.0269
▁influences	-11.027
▁thinking	-11.0271
▁Wing	-11.0271
▁interpretation	-11.0272
▁sun	-11.0272
▁physician	-11.0279
▁tool	-11.0279
▁endemic	-11.0282
▁sufficient	-11.0283
▁arriving	-11.0283
▁Electric	-11.0284
▁historians	-11.0284
▁pole	-11.0286
▁ministry	-11.0291
gun	-11.0293
▁Eventually	-11.0298
▁wheel	-11.0299
▁portrait	-11.0301
▁rocks	-11.0302
ron	-11.0303
ru	-11.0304
▁Ridge	-11.0305
▁Nevada	-11.0306
▁academy	-11.0309
▁closure	-11.031
▁Soccer	-11.0311
▁bear	-11.0311
▁charter	-11.0321
▁burned	-11.0323
▁expert	-11.0326
▁citing	-11.0327
▁Policy	-11.0333
▁Fall	-11.0337
▁references	-11.0337
▁golf	-11.0342
▁planet	-11.0345
▁campaigns	-11.0346
▁shut	-11.0346
▁Croatia	-11.0347
▁Protestant	-11.0348
▁Circuit	-11.0351
▁Mars	-11.0353
▁affair	-11.0357
▁Giants	-11.0359
▁doubles	-11.0359
▁g	-11.0362
▁labour	-11.0363
▁submarine	-11.0364
su	-11.0369
▁canal	-11.0373
▁Sub	-11.0374
▁internet	-11.0374
▁Croatian	-11.0376
nik	-11.0376
▁relegated	-11.0377
▁temporarily	-11.0379
ju	-11.0379
▁explains	-11.0381
▁walking	-11.0381
▁attendance	-11.0385
that	-11.0385
▁permitted	-11.0389
▁stress	-11.0401
water	-11.0402
▁Archbishop	-11.0411
▁predecessor	-11.0417
▁Jefferson	-11.0427
▁Murphy	-11.0427
om	-11.0428
▁drums	-11.043
▁raising	-11.0434
▁practical	-11.0435
▁sample	-11.0437
▁Keith	-11.0437
▁Ham	-11.0437
▁Rogers	-11.044
▁Masters	-11.0441
▁exhibit	-11.0444
▁Are	-11.0446
▁connect	-11.0451
▁Pedro	-11.0451
non	-11.0451
▁qualification	-11.0454
▁failing	-11.0454
▁enforcement	-11.0454
▁jump	-11.0458
▁atmosphere	-11.0463
▁demands	-11.0466
▁bridges	-11.0467
▁Gilbert	-11.0468
▁distinctive	-11.0469
▁Play	-11.0472
▁destroy	-11.0484
▁ambassador	-11.0485
▁Euro	-11.0493
▁gallery	-11.0494
▁Berkeley	-11.0495
▁Wellington	-11.0496
▁evolved	-11.0503
▁suspension	-11.0504
▁unincorporated	-11.0504
▁Small	-11.0505
▁Craig	-11.0505
▁zero	-11.0508
▁Faculty	-11.0508
▁Il	-11.0512
▁kg	-11.0512
▁options	-11.0513
▁Cole	-11.0514
▁alternate	-11.0517
▁Model	-11.0522
▁bed	-11.0525
▁enemies	-11.0527
▁Microsoft	-11.0535
▁Liu	-11.0535
▁answer	-11.0537
▁dissolved	-11.0539
▁compound	-11.0543
▁prices	-11.0543
▁Hitler	-11.0552
▁Report	-11.0555
▁cavalry	-11.0557
▁Ottawa	-11.0558
▁settlements	-11.0558
▁feeling	-11.056
ts	-11.0568
▁Thai	-11.0573
▁strip	-11.0574
▁visits	-11.0574
▁collapse	-11.0582
▁Newcastle	-11.0588
▁Kar	-11.059
▁buses	-11.0592
▁Race	-11.0593
▁dollars	-11.0594
▁escaped	-11.0596
▁guide	-11.0596
▁Christianity	-11.0599
▁comparison	-11.06
▁Blues	-11.0601
cy	-11.0605
▁scientist	-11.0608
▁shops	-11.0609
▁aspect	-11.0609
▁sustained	-11.0613
▁fighters	-11.0618
tic	-11.0618
let	-11.062
▁difficulty	-11.0624
▁Grace	-11.0625
▁root	-11.0626
▁carries	-11.0628
pe	-11.063
▁fill	-11.063
▁Professional	-11.0631
▁Wallace	-11.0631
▁Colombia	-11.0637
[	-11.0638
▁finance	-11.0639
▁affiliate	-11.064
▁thin	-11.064
▁belongs	-11.0642
▁gathered	-11.0645
▁pushed	-11.0647
hand	-11.0647
hill	-11.0649
▁phrase	-11.0649
▁distinction	-11.0652
▁powered	-11.0653
▁challenged	-11.0657
▁Indonesian	-11.066
▁attacking	-11.066
▁Students	-11.066
▁elementary	-11.0667
▁guests	-11.0669
▁Confederate	-11.0669
▁grey	-11.0672
▁Tar	-11.0672
ber	-11.0674
▁excellent	-11.0675
▁Support	-11.0677
▁tournaments	-11.0679
▁Independence	-11.0684
▁bone	-11.0684
▁receives	-11.0686
ata	-11.0689
▁referring	-11.069
▁smooth	-11.0707
▁Bulgaria	-11.071
▁select	-11.0721
▁logo	-11.0725
▁earthquake	-11.0726
▁argument	-11.0728
length	-11.074
▁Mel	-11.0741
ette	-11.0742
▁consistent	-11.0744
▁bases	-11.0754
▁reporter	-11.0754
▁locomotive	-11.0755
har	-11.0763
▁Based	-11.0767
▁vocalist	-11.0767
▁emphasis	-11.0769
▁cap	-11.0771
▁camps	-11.0774
▁Survey	-11.0774
▁waste	-11.0776
▁Systems	-11.0778
▁pulled	-11.078
▁Sierra	-11.0785
▁Nebraska	-11.0785
▁f	-11.0786
▁uniform	-11.0789
▁intellectual	-11.079
▁awareness	-11.079
▁Southeast	-11.0791
▁tested	-11.0793
▁lawsuit	-11.0795
▁radical	-11.0796
▁interviews	-11.0796
▁alive	-11.0805
wi	-11.0807
ck	-11.0807
right	-11.0813
▁Rob	-11.0816
▁carrier	-11.0818
▁Protection	-11.0821
▁Ivan	-11.0824
ou	-11.0828
ica	-11.0831
▁Side	-11.0833
▁installation	-11.0834
▁Dar	-11.0835
▁Penn	-11.0836
▁forty	-11.0839
▁reflect	-11.084
▁economics	-11.0842
▁Lo	-11.0842
▁productions	-11.0842
▁collective	-11.0847
▁sort	-11.0849
ea	-11.0849
▁reflected	-11.0852
▁Obama	-11.0855
▁automatic	-11.0858
▁Chapel	-11.0861
▁outdoor	-11.0864
▁fundamental	-11.0865
▁speakers	-11.0867
▁resumed	-11.0873
▁recipient	-11.0874
mon	-11.0874
▁Mason	-11.0874
▁aware	-11.0885
▁archaeological	-11.089
▁Aviation	-11.0893
▁accommodate	-11.0896
▁mines	-11.0899
▁Mad	-11.0903
▁revised	-11.0904
▁underwent	-11.0904
▁aboard	-11.0908
▁Technical	-11.091
life	-11.0913
▁Trans	-11.0915
▁drove	-11.092
▁Delta	-11.0922
▁elder	-11.0922
▁formula	-11.0922
▁Dennis	-11.0927
▁Denver	-11.0928
▁waiting	-11.0928
ano	-11.0929
▁Par	-11.0931
▁sleep	-11.0933
▁error	-11.0935
▁imprisoned	-11.0944
▁Wolf	-11.0945
▁connects	-11.0946
▁deck	-11.095
▁°	-11.0951
▁Kai	-11.0952
▁worst	-11.0953
vo	-11.0955
▁Harbor	-11.0955
▁sharing	-11.0956
▁CDP	-11.0961
My	-11.0967
▁stem	-11.0967
▁salt	-11.0971
▁Beginning	-11.0972
▁Venice	-11.098
sex	-11.0982
▁Perry	-11.0985
▁disaster	-11.0989
▁Lang	-11.0989
▁speaker	-11.099
▁Florence	-11.099
▁Leeds	-11.0991
▁Marvel	-11.0991
▁y	-11.0993
▁Currently	-11.0994
fa	-11.0994
▁detail	-11.0994
▁illustrated	-11.0995
▁worn	-11.0999
▁disbanded	-11.1001
▁*	-11.1001
▁Holland	-11.1002
ver	-11.1003
▁valuable	-11.1006
▁therapy	-11.1008
▁consist	-11.101
▁Price	-11.101
▁Players	-11.1012
▁documented	-11.1016
ren	-11.1017
▁Leo	-11.102
▁announcement	-11.1022
▁predominantly	-11.1024
▁coached	-11.103
▁Shaw	-11.103
central	-11.1032
▁Butler	-11.1034
▁Tag	-11.104
▁Armed	-11.1042
▁printing	-11.1054
ku	-11.1058
▁neck	-11.1062
burg	-11.1063
▁chemistry	-11.107
▁crosses	-11.1072
▁fun	-11.1073
▁Watson	-11.1074
▁politicians	-11.1074
bit	-11.1077
▁"[	-11.1078
▁Gu	-11.1079
▁Horse	-11.108
ston	-11.1082
▁Bus	-11.1082
▁gardens	-11.1091
▁serial	-11.1095
ska	-11.1096
▁telling	-11.1096
▁monthly	-11.1098
▁asking	-11.1098
▁grandson	-11.1103
▁evil	-11.1106
▁switched	-11.1109
▁warm	-11.112
▁procedure	-11.112
▁undergraduate	-11.1122
ai	-11.1122
▁Grammy	-11.1122
▁patent	-11.1129
stein	-11.1136
▁basin	-11.1136
▁Angel	-11.1138
▁improvements	-11.1139
▁ocean	-11.1141
▁Petersburg	-11.1142
san	-11.1142
▁Chen	-11.1145
▁Productions	-11.115
▁nickname	-11.115
▁Stuart	-11.1151
▁dramatic	-11.1152
▁golden	-11.1153
▁rebellion	-11.1153
▁focusing	-11.1157
▁bi	-11.1158
▁meat	-11.1159
▁Sheffield	-11.1162
▁sum	-11.1165
▁Exchange	-11.1176
▁grave	-11.1181
▁Amazon	-11.1187
▁Mother	-11.1188
▁casualties	-11.1196
▁Hughes	-11.1199
▁Roosevelt	-11.12
▁gap	-11.1201
▁angle	-11.1201
▁perceived	-11.1202
▁footage	-11.1205
▁colleagues	-11.1205
▁argues	-11.1207
▁recovery	-11.1209
▁holiday	-11.1212
▁oxygen	-11.1214
▁Ber	-11.1214
ise	-11.1215
▁proteins	-11.1215
▁writings	-11.1218
▁Albums	-11.1219
ee	-11.1221
▁celebration	-11.1223
▁Reed	-11.1224
▁SC	-11.1225
▁flower	-11.1226
▁descendants	-11.123
▁citizen	-11.1232
yl	-11.1233
▁teach	-11.1234
▁manga	-11.1238
sha	-11.1243
▁superior	-11.1245
▁Ca	-11.1247
▁Publishing	-11.1248
▁tier	-11.1251
▁reception	-11.126
▁objective	-11.126
▁jail	-11.1261
▁Low	-11.1263
▁poll	-11.1265
▁Cruz	-11.1275
▁reforms	-11.1276
▁taxes	-11.1276
▁restaurants	-11.1276
▁relating	-11.1279
▁Clarke	-11.1279
▁coat	-11.128
▁theories	-11.128
▁helps	-11.1282
▁targets	-11.1284
▁Abraham	-11.129
ever	-11.129
state	-11.1291
▁Key	-11.1291
▁verse	-11.1293
▁Mills	-11.1294
▁dialogue	-11.1296
▁gift	-11.1296
▁reverse	-11.1297
▁Bel	-11.1297
▁Grey	-11.1301
▁ideal	-11.1301
▁approaches	-11.1302
▁dress	-11.1303
▁Ancient	-11.1303
▁payment	-11.1303
▁Vermont	-11.1304
dis	-11.1305
▁und	-11.1308
▁allies	-11.1319
▁renewed	-11.1322
▁thanks	-11.1326
▁regard	-11.1327
▁Prefecture	-11.133
▁exactly	-11.1332
founded	-11.1333
▁leaf	-11.1336
▁Workers	-11.1338
▁Harold	-11.1338
▁Eagles	-11.1345
▁seemed	-11.135
▁Luke	-11.1359
▁contribute	-11.136
▁Kerala	-11.136
▁explain	-11.136
▁enters	-11.136
▁retreat	-11.136
▁AM	-11.136
made	-11.136
▁diseases	-11.1361
▁Ring	-11.1366
▁Chair	-11.1367
▁exhibitions	-11.1367
▁till	-11.1368
▁Hi	-11.1376
▁input	-11.1379
▁organic	-11.138
▁pairs	-11.138
▁radar	-11.138
▁cutting	-11.1381
▁Madison	-11.1382
▁universe	-11.1385
▁preserve	-11.1385
▁Greg	-11.1387
▁divorce	-11.1388
▁widow	-11.1399
▁Magic	-11.1402
zo	-11.1402
▁Google	-11.1405
▁roll	-11.1408
▁beam	-11.1412
▁Artillery	-11.1413
ria	-11.1416
▁partial	-11.142
▁Phillips	-11.1423
▁discrimination	-11.1424
five	-11.1424
▁Sox	-11.1425
▁parks	-11.1426
▁breeding	-11.1427
▁Range	-11.1428
▁honors	-11.143
▁talks	-11.1431
▁weak	-11.1431
▁updated	-11.1433
▁beaten	-11.1434
▁worker	-11.1438
▁cathedral	-11.1439
▁Shanghai	-11.144
▁Susan	-11.1441
▁pitcher	-11.1444
▁trans	-11.1453
▁sat	-11.1453
▁technologies	-11.1455
▁Shakespeare	-11.1461
▁warning	-11.1463
▁Hell	-11.1463
If	-11.1469
▁Manuel	-11.147
▁Steven	-11.147
▁lifetime	-11.1472
▁Contemporary	-11.1476
▁departments	-11.1476
▁convinced	-11.1478
▁Wells	-11.1478
▁discontinued	-11.1478
▁restrictions	-11.148
▁artificial	-11.1481
▁discuss	-11.1483
▁supplied	-11.1483
fer	-11.1484
▁thirteen	-11.1485
▁Delaware	-11.1486
▁tourist	-11.1489
▁Sony	-11.1492
port	-11.1495
▁Bulgarian	-11.1498
▁firing	-11.1498
▁Pass	-11.1498
▁Larry	-11.15
▁Starting	-11.15
▁thereby	-11.1503
▁Hunt	-11.151
▁Ambassador	-11.1511
ac	-11.1512
▁Edwards	-11.1518
▁Arnold	-11.1519
▁battles	-11.1521
▁veteran	-11.1523
▁administered	-11.1529
▁Gabriel	-11.1532
▁recruited	-11.1533
▁scores	-11.1534
▁nephew	-11.1534
▁Mor	-11.1537
▁Stock	-11.1537
▁mainland	-11.1539
▁Minor	-11.1541
▁Ban	-11.1544
▁happy	-11.1544
▁Ghana	-11.1545
was	-11.1547
▁Literature	-11.1549
▁refugees	-11.1557
▁Montana	-11.1557
▁actively	-11.1558
▁allegations	-11.1563
▁Nature	-11.1567
dal	-11.1567
▁neighboring	-11.1568
▁Campaign	-11.157
▁Nashville	-11.1571
▁hence	-11.1573
="	-11.1574
▁variation	-11.1577
▁Newton	-11.1578
▁comments	-11.1582
▁Ge	-11.1586
▁variable	-11.1588
▁revival	-11.1589
▁prince	-11.159
▁magic	-11.159
▁colleges	-11.1597
▁maintaining	-11.1598
ita	-11.1602
▁comprehensive	-11.1603
▁framework	-11.1604
▁runners	-11.1604
▁Nine	-11.1605
▁Cabinet	-11.1608
▁aims	-11.1609
▁traveling	-11.1615
▁Cat	-11.1615
▁interesting	-11.1615
▁coaches	-11.1615
▁Leader	-11.1616
▁favorite	-11.1616
▁hidden	-11.1621
▁Venezuela	-11.1625
iya	-11.1627
▁Soul	-11.1628
▁Para	-11.1632
▁Monday	-11.1634
▁Byzantine	-11.1635
▁hero	-11.1636
▁tourism	-11.1636
May	-11.1639
▁Sen	-11.1639
▁Spirit	-11.1643
▁arrive	-11.1643
▁Ground	-11.1646
▁readers	-11.1647
▁animation	-11.165
▁custom	-11.1651
▁laboratory	-11.1651
▁institute	-11.1653
▁Provincial	-11.1654
▁Yugoslavia	-11.1655
▁liquid	-11.1658
▁bombing	-11.1665
▁dealing	-11.1665
▁flood	-11.1665
▁Ralph	-11.1667
▁fifty	-11.1675
▁Pa	-11.1676
▁Bull	-11.1681
▁theatrical	-11.1683
▁Near	-11.1683
▁raid	-11.1684
▁Jin	-11.1688
▁plastic	-11.1695
▁Non	-11.1696
▁Dragon	-11.1696
▁Grove	-11.1697
speaking	-11.17
▁Blood	-11.1701
▁virtual	-11.1701
▁Yang	-11.1703
▁intense	-11.1705
▁Punjab	-11.1706
▁Methodist	-11.1708
▁Ga	-11.1712
tra	-11.1712
▁addressed	-11.1714
▁arena	-11.1715
▁Lions	-11.1715
▁Future	-11.1716
▁Weekly	-11.1716
▁graduation	-11.1719
gan	-11.1719
▁Leonard	-11.1719
▁rice	-11.1722
ić	-11.1723
▁provision	-11.1724
▁essentially	-11.1725
▁magnetic	-11.1729
▁Nevertheless	-11.1729
▁impossible	-11.173
▁looks	-11.1732
ize	-11.1733
▁stops	-11.1734
▁Indies	-11.1738
▁hills	-11.1741
▁unless	-11.1743
▁prevented	-11.1744
▁Anglican	-11.1746
nia	-11.175
▁Monte	-11.1752
▁photographer	-11.1753
▁patrol	-11.1754
▁samples	-11.1758
▁pioneer	-11.1758
▁Performance	-11.1759
▁plain	-11.1759
▁profile	-11.1759
▁Revival	-11.1761
▁Raj	-11.1763
▁volunteers	-11.1766
▁extinct	-11.1773
▁rebounds	-11.1773
▁tea	-11.1774
▁Oak	-11.1776
▁crops	-11.1777
▁Hal	-11.1781
▁spots	-11.1783
ated	-11.1786
▁Computer	-11.1786
▁namely	-11.179
▁engagement	-11.1793
▁queen	-11.1795
▁comprises	-11.1795
▁moderate	-11.1797
▁faster	-11.1797
▁graphics	-11.1798
▁Transportation	-11.18
▁Production	-11.1803
▁Gregory	-11.1805
▁demanded	-11.1809
West	-11.1812
▁displays	-11.1814
▁kilometers	-11.1815
▁airline	-11.1815
only	-11.1816
▁retiring	-11.1817
▁Flight	-11.1817
speed	-11.1822
▁Marc	-11.1823
▁orange	-11.1825
▁stored	-11.1828
▁ordinary	-11.1828
▁Tel	-11.183
▁Stanford	-11.1832
▁artwork	-11.1833
▁ratings	-11.1834
▁sung	-11.1837
▁efficiency	-11.1838
ram	-11.1841
▁gate	-11.1842
▁diversity	-11.1843
ow	-11.1843
▁Tang	-11.1844
▁experiments	-11.1845
isation	-11.1845
▁surrender	-11.1849
▁bond	-11.185
▁employee	-11.185
▁consumption	-11.185
▁afternoon	-11.185
▁silent	-11.1851
▁Bobby	-11.1852
▁Paulo	-11.1855
▁experiment	-11.1856
To	-11.186
▁Ju	-11.1861
▁cave	-11.1861
▁drinking	-11.1865
▁Joan	-11.1867
▁Bros	-11.1869
▁Jose	-11.1872
▁Friends	-11.1879
▁feelings	-11.1879
▁Gar	-11.188
▁segments	-11.188
▁behaviour	-11.1885
▁heir	-11.1885
▁span	-11.1885
▁beliefs	-11.1886
▁understood	-11.1889
▁progressive	-11.1889
▁civilians	-11.1891
▁arrives	-11.1892
▁virus	-11.1896
▁teeth	-11.1897
▁god	-11.1902
▁touchdowns	-11.1903
▁extending	-11.1905
▁Conservation	-11.1907
▁Ra	-11.191
▁Ti	-11.1913
▁separation	-11.192
▁empire	-11.1921
▁resort	-11.1922
▁exit	-11.1924
▁inhabited	-11.1926
▁forcing	-11.1928
▁intervention	-11.1929
▁universal	-11.1935
▁inscription	-11.1939
▁Raymond	-11.1939
▁colonies	-11.194
▁Honor	-11.1943
▁drum	-11.1944
tre	-11.1944
▁Room	-11.1948
▁Otto	-11.1953
▁eventual	-11.1956
▁independently	-11.1958
rich	-11.1961
▁allegedly	-11.1963
hu	-11.1964
Best	-11.1965
▁aviation	-11.1967
gate	-11.1968
▁contracts	-11.1969
ach	-11.1969
▁trio	-11.1969
▁prepare	-11.1972
▁Win	-11.1972
▁Financial	-11.1973
▁bars	-11.1974
▁Hamburg	-11.1976
▁Let	-11.1978
▁Bond	-11.1981
▁Primary	-11.1982
▁Wei	-11.1983
▁Johann	-11.1988
▁elite	-11.1991
▁extends	-11.1992
▁similarly	-11.1995
▁anime	-11.1998
▁Commerce	-11.1999
kan	-11.1999
▁fourteen	-11.1999
▁Environmental	-11.2002
▁Every	-11.2004
▁Sha	-11.2004
á	-11.2005
▁fantasy	-11.2005
▁improvement	-11.2005
▁travels	-11.2011
▁restore	-11.2012
▁examination	-11.2013
▁Steel	-11.2015
▁Laura	-11.2017
▁seriously	-11.2018
▁Cold	-11.2021
▁goalkeeper	-11.2021
▁congregation	-11.2026
▁investigate	-11.2035
▁Iraqi	-11.2036
▁advocate	-11.2041
▁seeds	-11.2044
▁bonus	-11.2046
▁clay	-11.2046
▁Intelligence	-11.205
▁Lebanon	-11.2052
ology	-11.2053
▁Knights	-11.2055
▁specimens	-11.2055
▁shorter	-11.2058
▁metropolitan	-11.2059
▁Er	-11.2063
▁suspected	-11.2064
▁athlete	-11.2068
set	-11.2069
white	-11.207
▁Mon	-11.2073
▁pictures	-11.2076
▁Boulevard	-11.2078
▁shifted	-11.208
▁Junction	-11.2083
▁psychology	-11.2085
▁praise	-11.2087
▁stationed	-11.2088
▁rebels	-11.2089
▁Kan	-11.2089
▁gaining	-11.2091
rum	-11.2098
▁acoustic	-11.2102
▁parking	-11.2106
▁functional	-11.2106
▁Congo	-11.2108
▁Forum	-11.2109
▁telephone	-11.2109
▁Data	-11.2114
▁abilities	-11.2114
▁Rolling	-11.2115
▁Morning	-11.2115
ari	-11.2119
▁MTV	-11.2122
▁collect	-11.2124
▁Cameron	-11.2126
first	-11.2127
▁Revolutionary	-11.2128
▁sixteen	-11.2128
▁Eddie	-11.2132
▁k	-11.2134
▁Facebook	-11.2137
▁Ted	-11.2139
▁controls	-11.2147
▁manuscript	-11.2151
▁switch	-11.2153
▁Mario	-11.2154
▁statements	-11.2156
▁hardware	-11.2156
▁confidence	-11.216
▁Liberty	-11.216
▁Stockholm	-11.2162
▁organisations	-11.2166
▁Palestinian	-11.2167
▁altitude	-11.2171
▁Grande	-11.2171
▁relay	-11.2172
van	-11.2175
▁Der	-11.2177
▁retain	-11.2184
tes	-11.2186
▁lakes	-11.2188
▁commitment	-11.2188
▁Jam	-11.2191
▁societies	-11.2192
▁yard	-11.2198
▁noise	-11.2199
ud	-11.2204
▁Still	-11.2205
half	-11.2206
▁cultures	-11.2209
▁nominations	-11.221
▁interaction	-11.2213
▁tube	-11.2214
yn	-11.2216
All	-11.2219
▁realized	-11.2223
▁regulation	-11.2224
▁communist	-11.2225
▁Eagle	-11.2225
lived	-11.2227
▁engage	-11.2227
▁cult	-11.2227
▁signals	-11.223
▁Oscar	-11.2231
▁agree	-11.2238
▁consumer	-11.2239
▁friendship	-11.2241
▁posts	-11.2243
▁criteria	-11.2247
▁songwriter	-11.2251
▁destination	-11.2252
his	-11.2253
▁shipping	-11.2254
▁prey	-11.2255
▁sing	-11.2255
▁fewer	-11.226
▁Perth	-11.2261
▁prisoner	-11.2262
▁Joint	-11.2267
▁choir	-11.2268
▁Edition	-11.2268
▁repeatedly	-11.2269
▁Reading	-11.227
▁Celtic	-11.227
▁desert	-11.2272
▁transit	-11.2273
▁disorder	-11.2279
ula	-11.228
▁Vi	-11.2281
▁construct	-11.2282
▁indeed	-11.2284
▁dialect	-11.2289
founder	-11.2292
▁Outstanding	-11.2292
▁Agriculture	-11.2292
▁studios	-11.2293
▁signature	-11.2297
▁Friedrich	-11.2298
▁Former	-11.2299
▁Sr	-11.2303
▁concentrated	-11.2303
▁handed	-11.2304
ez	-11.2312
▁distinguish	-11.2312
bu	-11.2313
▁promised	-11.2314
▁followers	-11.232
▁tours	-11.2322
yi	-11.2326
▁survival	-11.2327
”.	-11.2329
▁Albanian	-11.2331
▁Mall	-11.2333
▁Arabia	-11.2337
▁Days	-11.2343
▁Chan	-11.2343
▁Shin	-11.2347
▁Foster	-11.2348
▁Nintendo	-11.2352
▁fame	-11.2355
▁noting	-11.2356
▁Harvey	-11.2356
▁PlayStation	-11.2357
▁Formation	-11.2357
▁Bu	-11.2363
fish	-11.2365
▁rifle	-11.2366
▁victories	-11.2366
four	-11.2367
▁milk	-11.2372
▁surprise	-11.2376
ada	-11.2376
▁sending	-11.2379
▁severely	-11.2382
▁Christians	-11.2382
▁rainfall	-11.2385
vin	-11.2385
▁Zhang	-11.2386
▁Care	-11.2389
▁Ana	-11.2399
▁tone	-11.24
▁Gate	-11.2403
▁potentially	-11.2406
▁exterior	-11.2406
▁Fisher	-11.2407
▁Box	-11.2407
▁Westminster	-11.2413
low	-11.2415
▁quick	-11.2418
▁hat	-11.2419
yu	-11.242
▁hospitals	-11.2422
▁neighbouring	-11.2424
rock	-11.2425
▁dubbed	-11.2425
▁Manila	-11.2426
▁diesel	-11.2426
ova	-11.243
▁Renaissance	-11.2431
▁immigration	-11.2431
▁defender	-11.2431
can	-11.2431
▁statistics	-11.2434
▁manages	-11.2435
▁invented	-11.2436
▁leagues	-11.2438
▁Gothic	-11.2438
▁Kate	-11.244
▁hoped	-11.244
▁empty	-11.244
▁succession	-11.2441
▁releasing	-11.2443
▁Writing	-11.2446
▁solutions	-11.2447
▁Drama	-11.2449
▁triple	-11.2453
▁auto	-11.2453
▁pitched	-11.2453
▁Lin	-11.2454
▁tape	-11.2454
▁pilots	-11.2463
▁generations	-11.2464
▁tissue	-11.2464
▁instruction	-11.2465
▁structural	-11.2466
she	-11.2467
▁Aires	-11.2467
▁confused	-11.2469
▁Raja	-11.2469
▁Vietnamese	-11.2469
▁duration	-11.247
▁decrease	-11.2471
then	-11.2471
▁Actor	-11.2474
▁belt	-11.2478
▁load	-11.2478
▁putting	-11.248
▁portions	-11.2481
▁Ji	-11.2484
▁Yi	-11.2484
▁Stan	-11.2485
▁plates	-11.2486
▁Aaron	-11.2488
▁compositions	-11.2488
▁activists	-11.249
▁advisor	-11.2493
▁paint	-11.2502
▁thesis	-11.2502
▁mixture	-11.2502
yo	-11.2503
▁faces	-11.2505
▁pit	-11.251
▁permanently	-11.2514
▁pale	-11.2514
▁Dame	-11.2516
▁Pearl	-11.2517
▁Golf	-11.252
▁Tommy	-11.252
▁venues	-11.2521
▁Vladimir	-11.2521
ating	-11.2526
dar	-11.2526
▁Record	-11.2528
▁tributary	-11.2534
▁Somerset	-11.2534
▁stolen	-11.2536
▁burial	-11.254
▁Northwest	-11.2541
▁Owen	-11.2541
bach	-11.2541
▁bench	-11.2546
▁editorial	-11.2551
▁martial	-11.2552
▁grades	-11.2552
▁fallen	-11.2553
▁spell	-11.2553
▁targeted	-11.2554
▁Des	-11.2556
▁circulation	-11.2556
▁Brunswick	-11.2558
▁Circle	-11.2559
▁Higher	-11.256
▁handling	-11.256
▁().	-11.2562
▁cuts	-11.2564
▁Franco	-11.2567
▁Essex	-11.257
▁preliminary	-11.2572
▁situations	-11.2576
▁Lisa	-11.2576
▁catch	-11.258
▁nationwide	-11.2582
▁suggesting	-11.2582
▁corps	-11.2585
tor	-11.2587
▁adventure	-11.259
▁sit	-11.2591
▁Representative	-11.2592
▁presentation	-11.2592
▁Secret	-11.2594
▁infection	-11.2595
▁acclaim	-11.2606
▁Ad	-11.2607
▁specialist	-11.2611
▁database	-11.2615
▁notice	-11.2616
▁Bosnia	-11.2623
▁pure	-11.2624
ball	-11.2628
▁citizenship	-11.2629
▁Block	-11.263
▁Buenos	-11.263
tha	-11.2635
▁prototype	-11.2636
▁broadcasts	-11.2638
din	-11.2643
▁Montgomery	-11.2644
▁Miguel	-11.2646
▁enabled	-11.2646
▁recognize	-11.265
▁dependent	-11.2652
▁Right	-11.2652
▁accurate	-11.2653
▁investors	-11.2653
▁Bird	-11.2654
▁discovers	-11.2654
▁Neil	-11.2656
▁personally	-11.2657
▁Prague	-11.2658
▁ministers	-11.2659
ref	-11.266
▁quarterback	-11.2662
▁sciences	-11.2664
▁deliver	-11.2665
▁Cuban	-11.2666
▁volunteer	-11.2669
ros	-11.2669
▁reviewed	-11.2671
▁Yan	-11.2676
▁Aboriginal	-11.2677
▁Interstate	-11.2678
▁amounts	-11.2679
▁transported	-11.2682
▁Spencer	-11.2682
▁carved	-11.2684
▁Deep	-11.2685
▁intermediate	-11.2686
▁lineup	-11.2686
▁conductor	-11.2688
wan	-11.2688
▁check	-11.2689
▁upcoming	-11.2692
▁storyline	-11.2692
▁dream	-11.2693
▁hometown	-11.2693
tal	-11.2694
▁sure	-11.2697
chief	-11.2698
▁Lucas	-11.2698
▁molecular	-11.2699
▁Columbus	-11.27
▁tri	-11.27
▁seized	-11.2707
▁considering	-11.2708
▁exile	-11.2709
produced	-11.2712
▁Cork	-11.2715
sson	-11.2717
▁Twitter	-11.2719
▁requirement	-11.2724
foot	-11.2725
▁renowned	-11.2726
▁register	-11.2726
▁requir	-11.2727
▁package	-11.2729
▁coffee	-11.273
▁Lost	-11.2731
▁Ja	-11.2734
▁clock	-11.2738
▁Pakistani	-11.2742
▁Twenty	-11.2745
ensis	-11.2747
▁familiar	-11.2748
▁consensus	-11.2748
▁commentary	-11.2748
▁Voice	-11.2761
▁panels	-11.2763
▁Maurice	-11.2767
▁welfare	-11.2768
▁Lou	-11.2772
▁biography	-11.2773
▁criticised	-11.2773
▁Fourth	-11.2775
▁Besides	-11.2775
▁tip	-11.2776
dimensional	-11.2778
▁Palestine	-11.2784
▁Using	-11.2784
▁shots	-11.2787
ning	-11.2791
▁lecturer	-11.2795
light	-11.2798
▁ferry	-11.2801
▁gauge	-11.2803
▁merely	-11.2803
▁tasks	-11.2806
▁arrangements	-11.2807
▁encourage	-11.2808
▁shallow	-11.2808
sized	-11.2815
▁Article	-11.2815
▁Set	-11.282
▁Mont	-11.2823
▁Jamaica	-11.2825
▁Ruth	-11.2828
▁wish	-11.2828
▁reveal	-11.2828
▁celebrate	-11.2828
lar	-11.283
▁prestigious	-11.2831
▁imprisonment	-11.2831
▁Cardinals	-11.2834
ab	-11.2834
▁Pen	-11.2836
ial	-11.2837
after	-11.284
▁Artists	-11.284
▁freight	-11.2841
▁relatives	-11.2841
▁radiation	-11.2845
▁Milwaukee	-11.2846
▁Wind	-11.2847
▁concepts	-11.2848
▁withdrawn	-11.285
▁punk	-11.285
▁tackles	-11.2851
▁Sal	-11.2851
▁mentions	-11.2852
▁programmes	-11.2853
▁manufacturers	-11.2854
▁hop	-11.2854
▁efficient	-11.2856
▁trouble	-11.2857
tus	-11.286
▁rapper	-11.286
▁Bennett	-11.2867
▁Economics	-11.2868
▁NASA	-11.2869
▁breaks	-11.2874
▁Student	-11.2876
▁Plant	-11.288
▁bassist	-11.2882
▁consent	-11.2885
▁cent	-11.2886
▁Auto	-11.2887
El	-11.2887
▁Legislature	-11.2889
▁Bath	-11.2891
▁stroke	-11.2898
▁Airlines	-11.2899
▁Chester	-11.2899
▁threw	-11.29
▁provisions	-11.2903
▁governing	-11.2904
ay	-11.2909
▁Stage	-11.2909
▁lighting	-11.2913
▁missile	-11.2915
▁floors	-11.2923
▁wore	-11.2926
▁danger	-11.2926
▁siblings	-11.2928
▁southeastern	-11.293
▁altered	-11.2931
▁Sand	-11.2933
▁achievement	-11.2934
On	-11.2938
▁expanding	-11.2938
▁varied	-11.2939
▁Har	-11.2939
▁Sullivan	-11.2939
▁clients	-11.294
▁Justin	-11.2943
ability	-11.2945
▁teammate	-11.2952
▁psychological	-11.2952
▁fluid	-11.2952
▁grass	-11.2953
▁Nancy	-11.2955
▁treat	-11.2963
▁app	-11.2963
▁ibn	-11.2968
▁kick	-11.2972
▁Tai	-11.2975
▁graphic	-11.2975
▁democratic	-11.2979
▁craft	-11.2984
▁knee	-11.2985
▁conjunction	-11.2987
▁Palmer	-11.2991
▁LP	-11.2993
▁Stevens	-11.2996
▁ask	-11.2996
▁presidency	-11.2997
▁punishment	-11.2999
▁Cha	-11.2999
▁permit	-11.3
▁variations	-11.3004
▁Actress	-11.3007
▁assessment	-11.3008
▁ranges	-11.3012
▁registration	-11.3015
▁Gardens	-11.3018
▁journalists	-11.3022
▁march	-11.3023
▁Railways	-11.3025
▁Elementary	-11.3027
▁hear	-11.3028
▁hole	-11.3028
ala	-11.3031
where	-11.3031
▁referendum	-11.3032
▁Eve	-11.3033
▁remembered	-11.3034
▁touch	-11.3034
len	-11.3035
▁Durham	-11.3036
▁Georgian	-11.3037
▁Artist	-11.3038
▁Canterbury	-11.304
▁privately	-11.3041
▁Globe	-11.3041
What	-11.3047
▁Danny	-11.3047
▁improving	-11.3047
▁Wilhelm	-11.305
mus	-11.3054
▁numbered	-11.3056
▁circular	-11.3057
▁comprising	-11.3057
▁staged	-11.306
▁Oakland	-11.306
▁dancing	-11.306
▁judicial	-11.3062
▁audiences	-11.3063
▁resource	-11.3063
▁athletic	-11.3066
ón	-11.3067
▁orbit	-11.3074
▁Triple	-11.3076
▁divorced	-11.3078
ó	-11.3079
▁ERA	-11.3079
▁nationally	-11.308
▁handle	-11.308
▁calendar	-11.3089
▁BCE	-11.3091
ken	-11.3093
▁Pete	-11.3097
▁Sara	-11.3098
▁Emma	-11.3098
▁strict	-11.3101
stra	-11.3104
track	-11.3106
▁waves	-11.3106
▁soap	-11.3109
▁moments	-11.3114
▁cotton	-11.3116
▁syndrome	-11.3116
key	-11.3116
▁equation	-11.3119
▁identification	-11.312
▁Davies	-11.3125
▁enlisted	-11.3127
▁Indigenous	-11.3129
▁encountered	-11.3131
▁Jacques	-11.3134
▁messages	-11.3135
▁Moreover	-11.3137
▁revolutionary	-11.3137
ua	-11.3139
▁Bon	-11.3143
▁guidance	-11.3146
▁Laboratory	-11.3146
▁Neo	-11.3149
▁maintains	-11.315
▁experts	-11.3151
▁consultant	-11.3155
▁Sussex	-11.3156
▁doctorate	-11.3161
▁mini	-11.3161
▁discover	-11.3163
member	-11.3165
▁banking	-11.3166
▁Was	-11.3167
▁autumn	-11.3171
▁bears	-11.3172
three	-11.3173
ent	-11.3174
▁democracy	-11.3175
▁ordained	-11.3184
▁Rod	-11.3185
▁Pu	-11.3186
some	-11.3187
▁headquartered	-11.3187
▁Scotia	-11.3188
▁northeastern	-11.3189
▁Panama	-11.3191
▁lift	-11.3194
written	-11.3198
tier	-11.32
▁settle	-11.3202
page	-11.3202
▁[...]	-11.3208
my	-11.3209
songwriter	-11.3211
▁striking	-11.3213
▁kills	-11.3216
▁Herald	-11.322
▁encounter	-11.322
▁pursued	-11.3222
ae	-11.3226
room	-11.3227
▁survivors	-11.3228
▁Continental	-11.3228
▁integration	-11.323
▁Cox	-11.3232
▁reserves	-11.3233
under	-11.3234
▁sharp	-11.3237
▁acquire	-11.3238
worth	-11.3239
▁egg	-11.324
▁conflicts	-11.3243
▁watching	-11.3245
▁bell	-11.3246
▁Java	-11.3246
▁Call	-11.3248
▁travelling	-11.3249
March	-11.3249
▁Kal	-11.3249
▁computers	-11.3249
▁happen	-11.3251
▁interchange	-11.3251
▁renovation	-11.3252
▁Web	-11.3255
▁files	-11.3257
▁Private	-11.3257
▁Indianapolis	-11.3257
▁Site	-11.3258
▁ruins	-11.326
▁Sean	-11.3264
▁heading	-11.3266
▁helicopter	-11.3267
▁Subsequently	-11.3268
▁flooding	-11.3275
▁topped	-11.3277
▁ports	-11.3282
▁Heights	-11.3283
▁warfare	-11.3284
▁interface	-11.3285
▁observation	-11.3287
▁cricketer	-11.3291
▁Armenia	-11.3291
▁pianist	-11.3292
▁mail	-11.3292
MP	-11.3294
▁Za	-11.3294
▁interim	-11.3295
▁Similarly	-11.33
▁Mumbai	-11.3301
▁freestyle	-11.3304
▁slavery	-11.3308
ig	-11.3309
▁valid	-11.3314
▁boards	-11.3316
▁cleared	-11.3316
▁disappeared	-11.3319
▁populated	-11.3325
▁interpreted	-11.3325
▁Cardinal	-11.3326
▁dying	-11.3329
▁Bor	-11.3333
▁ages	-11.3334
▁averaged	-11.334
ities	-11.3344
cho	-11.3348
▁findings	-11.3349
▁Tor	-11.3353
▁Reform	-11.3355
▁push	-11.3358
▁supporter	-11.3368
▁entity	-11.3368
built	-11.3368
▁Isaac	-11.337
▁Den	-11.337
▁Uganda	-11.337
▁Hindi	-11.3371
▁pregnant	-11.3373
eastern	-11.3374
▁Shu	-11.3376
▁attraction	-11.3378
▁Snow	-11.3381
▁sailing	-11.3385
ena	-11.3386
▁dies	-11.3387
▁loop	-11.3389
▁fraud	-11.339
▁Legion	-11.339
▁particles	-11.3392
▁transformed	-11.3393
▁hosting	-11.3396
▁shelter	-11.3397
▁drink	-11.3398
▁streak	-11.34
▁centres	-11.3402
▁indoor	-11.3405
▁Stakes	-11.3405
▁Todd	-11.3406
▁Josh	-11.3408
▁Estate	-11.3409
▁Rich	-11.3416
▁delay	-11.3417
▁armies	-11.3421
▁farms	-11.3421
▁Presbyterian	-11.3422
▁Transit	-11.3422
▁gear	-11.3422
▁threats	-11.3425
▁generate	-11.3425
▁acknowledged	-11.3429
▁condemned	-11.3431
▁Gil	-11.3432
▁upgraded	-11.3433
▁index	-11.3435
▁withdraw	-11.3436
▁profit	-11.3436
▁magnitude	-11.3438
▁Min	-11.3439
▁imposed	-11.3441
▁automatically	-11.3441
▁governed	-11.3442
▁authorized	-11.3443
▁configuration	-11.3446
▁Surrey	-11.3448
ris	-11.3448
▁Dog	-11.3449
▁Gun	-11.345
▁proceeded	-11.3454
▁grants	-11.3455
▁prayer	-11.3462
ović	-11.3462
▁towers	-11.3464
▁decreased	-11.3466
▁brings	-11.3468
▁doctrine	-11.3469
▁Study	-11.347
aka	-11.3471
▁Volume	-11.3474
▁Spider	-11.3477
▁militia	-11.3479
▁fairly	-11.3479
▁mansion	-11.348
▁petition	-11.3483
▁chapters	-11.3486
▁practiced	-11.3486
▁nominee	-11.3487
▁mall	-11.3493
▁backed	-11.3496
▁honored	-11.3496
▁investigated	-11.3497
▁counted	-11.35
▁Guards	-11.3501
▁Ro	-11.3503
▁literacy	-11.3503
▁Operations	-11.3504
▁Left	-11.3506
▁absolute	-11.3507
ban	-11.3508
top	-11.3508
▁performers	-11.351
▁batting	-11.3514
▁Sur	-11.3522
▁ammunition	-11.3524
▁publish	-11.3525
▁ballot	-11.3526
▁suddenly	-11.3526
▁Amy	-11.3526
▁singers	-11.3527
▁Metal	-11.3527
▁priests	-11.353
▁closest	-11.3532
▁Holmes	-11.3533
rin	-11.3533
▁oral	-11.3534
▁Rhode	-11.3534
person	-11.3537
dan	-11.3539
One	-11.354
▁conducting	-11.3541
▁crashed	-11.3542
▁operators	-11.3544
▁grid	-11.355
▁creates	-11.3551
▁arch	-11.3551
▁anchor	-11.3553
▁procedures	-11.3558
▁Brussels	-11.3559
▁attitude	-11.3561
▁Coach	-11.3562
▁theorem	-11.3565
▁bright	-11.3568
▁WWE	-11.3568
▁dogs	-11.357
▁onwards	-11.357
▁wet	-11.357
▁deeply	-11.3572
▁par	-11.3575
▁varying	-11.3575
▁Ernest	-11.3577
▁Copenhagen	-11.3582
▁struggled	-11.3582
▁Cinema	-11.3583
abad	-11.3583
handed	-11.3586
▁bacteria	-11.3586
▁Santiago	-11.3588
▁LA	-11.3588
▁Fish	-11.3591
▁con	-11.3592
▁Solomon	-11.3593
▁client	-11.3594
▁Gene	-11.3597
▁feels	-11.3598
▁rely	-11.3599
sur	-11.36
▁assignment	-11.3601
▁tale	-11.3604
▁Scientific	-11.3605
▁mutual	-11.3607
▁explosion	-11.3612
▁engineers	-11.3615
▁marking	-11.3615
▁Movie	-11.3618
▁doctors	-11.3618
▁eighteen	-11.362
▁Serie	-11.3621
▁Sh	-11.3622
▁streams	-11.3623
▁novelist	-11.3624
▁presents	-11.3626
▁inclusion	-11.3626
▁Page	-11.3629
▁Films	-11.3632
work	-11.3641
▁random	-11.3644
▁garrison	-11.3644
▁scandal	-11.3645
▁rocket	-11.3647
▁Basin	-11.3651
▁sequences	-11.3651
▁Queens	-11.3652
▁learns	-11.3653
▁Diamond	-11.3654
ok	-11.3654
released	-11.3658
▁emerging	-11.3662
▁paying	-11.3662
▁Annual	-11.3663
▁essay	-11.3663
▁trend	-11.3666
▁revived	-11.3672
▁journalism	-11.3672
▁depicting	-11.3674
▁Yo	-11.3675
▁solely	-11.3675
▁semifinals	-11.3676
▁wickets	-11.3679
▁involve	-11.3688
▁vector	-11.3688
▁blind	-11.3689
▁Amendment	-11.3691
▁Engineers	-11.37
▁specified	-11.3701
▁aftermath	-11.3703
▁width	-11.3707
▁photos	-11.3708
▁muscle	-11.3711
band	-11.3713
▁developer	-11.3715
▁customer	-11.3717
▁Machine	-11.372
oni	-11.3721
▁Rice	-11.3723
▁opposing	-11.3723
▁boss	-11.3724
▁pace	-11.3725
▁Chang	-11.3728
ance	-11.3731
▁Environment	-11.3734
▁Gibson	-11.374
De	-11.3744
▁Alpha	-11.3757
▁Michel	-11.376
▁properly	-11.3761
▁Ellis	-11.3763
▁Nigerian	-11.3764
▁deposits	-11.3766
▁Leon	-11.3766
▁colonel	-11.3767
▁airing	-11.3769
▁protagonist	-11.377
▁Guild	-11.3774
▁Emily	-11.3776
▁volleyball	-11.3777
▁limestone	-11.3777
▁renovated	-11.3777
▁quoted	-11.3778
▁Geneva	-11.3781
▁assembled	-11.3781
▁Oil	-11.3781
▁Woods	-11.3784
▁migration	-11.3784
▁Bear	-11.3785
Con	-11.3787
▁impressed	-11.3788
April	-11.3791
▁compensation	-11.3792
▁drawings	-11.3792
▁peoples	-11.3797
▁neutral	-11.38
▁wire	-11.3801
▁noble	-11.3803
▁Ferdinand	-11.3804
▁Dominican	-11.3807
▁beneath	-11.3809
▁revenge	-11.3815
ett	-11.3815
▁rotation	-11.3817
▁territorial	-11.3818
St	-11.382
ens	-11.3822
gu	-11.3823
▁depicts	-11.3823
▁sword	-11.3825
▁administrator	-11.3826
▁quantum	-11.3826
▁impressive	-11.3828
pop	-11.3828
sville	-11.3829
▁phenomenon	-11.383
▁stronger	-11.3832
▁Lancashire	-11.3835
August	-11.3835
▁fortress	-11.3836
▁Lithuania	-11.3837
▁watched	-11.3839
▁achievements	-11.384
are	-11.3841
▁Isle	-11.3842
▁favourite	-11.3842
▁reservoir	-11.3842
▁explore	-11.3843
▁patron	-11.3845
▁diet	-11.3846
▁Bach	-11.3847
▁intent	-11.385
▁Tree	-11.3855
▁terrain	-11.3856
Al	-11.3858
sar	-11.3859
▁Kil	-11.3859
▁Fifth	-11.3861
▁easier	-11.3862
▁Louise	-11.3867
▁colours	-11.3868
▁Harbour	-11.387
▁belong	-11.3871
▁favorable	-11.3874
▁larvae	-11.3874
▁Palm	-11.3878
both	-11.3881
ix	-11.3884
▁binding	-11.3885
▁Secondary	-11.3885
▁withdrawal	-11.3886
▁ensemble	-11.3886
▁hydrogen	-11.3888
▁proof	-11.3891
▁hybrid	-11.3894
▁libraries	-11.3895
▁Belgrade	-11.3895
world	-11.3896
án	-11.3896
▁throw	-11.3897
▁Henri	-11.3898
▁interactions	-11.3903
▁Interior	-11.3905
▁advised	-11.3906
▁bio	-11.3909
▁estates	-11.3917
▁Rosa	-11.3923
▁Tiger	-11.3926
▁relegation	-11.3926
▁furniture	-11.3927
▁Merit	-11.3929
bank	-11.393
kh	-11.3938
▁varies	-11.3938
▁stake	-11.3939
▁matrix	-11.3939
▁topic	-11.394
▁Chapter	-11.394
▁assassination	-11.3941
▁Chase	-11.3943
ph	-11.3944
▁AFC	-11.3945
▁Albania	-11.3945
▁naming	-11.3949
lis	-11.3952
selling	-11.3952
▁bin	-11.3954
There	-11.3955
iz	-11.3955
▁lights	-11.3959
▁Advisory	-11.3961
▁genes	-11.3962
▁VII	-11.3963
▁rivals	-11.3966
▁accomplished	-11.3967
▁burning	-11.3968
▁Desert	-11.397
▁crucial	-11.3971
▁expelled	-11.3971
▁Lodge	-11.3973
▁Hard	-11.3974
▁regardless	-11.3974
▁Abdul	-11.3975
ven	-11.3975
▁tomb	-11.3977
ington	-11.398
▁manuscripts	-11.398
▁compounds	-11.3983
oli	-11.3987
board	-11.3988
▁Horn	-11.3988
pan	-11.3989
nan	-11.3991
▁layers	-11.3994
▁prompted	-11.3997
▁"...	-11.3997
▁lying	-11.3999
▁shaped	-11.4
▁nose	-11.4001
▁Agreement	-11.4003
▁researcher	-11.4005
▁Baby	-11.4006
▁HD	-11.4006
▁Official	-11.4011
▁Newport	-11.4013
▁Tampa	-11.4015
▁blues	-11.4016
As	-11.4018
▁questioned	-11.4018
▁rally	-11.4018
mont	-11.4021
▁reactions	-11.4023
▁Located	-11.4025
▁hamlet	-11.4029
▁reconstruction	-11.4029
▁outcome	-11.403
▁Progressive	-11.4031
▁blocked	-11.4032
▁Colin	-11.4037
▁unclear	-11.4037
▁Vale	-11.4039
▁Kara	-11.404
▁pupils	-11.4042
▁Sudan	-11.4042
▁Brook	-11.4044
▁Ages	-11.4044
▁girlfriend	-11.4044
week	-11.4045
▁nineteenth	-11.4047
▁Bryan	-11.4048
▁twentieth	-11.4048
▁poorly	-11.4049
▁GT	-11.405
▁Princeton	-11.4051
▁journals	-11.4054
▁ridge	-11.4055
▁rebel	-11.4057
ence	-11.4058
▁fate	-11.406
▁Brad	-11.4063
▁literally	-11.4063
▁Chelsea	-11.4064
▁witness	-11.4068
▁Blake	-11.4069
▁sacred	-11.407
▁integral	-11.4077
▁vegetation	-11.408
▁stretch	-11.4081
▁profession	-11.4081
▁elect	-11.4083
▁manor	-11.4083
▁transformation	-11.4085
▁Competition	-11.4091
▁Ex	-11.4096
▁Angels	-11.4099
▁tourists	-11.4101
▁founders	-11.4103
▁rough	-11.4104
▁Devon	-11.4106
▁nurse	-11.4106
new	-11.4107
▁abortion	-11.4107
▁environments	-11.4108
▁tribal	-11.4108
▁Calgary	-11.4109
▁promise	-11.4111
▁lessons	-11.4113
▁finale	-11.4114
▁gathering	-11.4114
tri	-11.4116
▁consequence	-11.4118
▁Carr	-11.4121
▁Napoleon	-11.4121
tar	-11.4123
▁Plaza	-11.4124
▁Advanced	-11.4127
▁observations	-11.4129
▁AC	-11.4129
▁recover	-11.4135
km	-11.4141
▁consequences	-11.4141
ika	-11.4142
▁inaugurated	-11.4142
▁stability	-11.4146
ela	-11.4149
▁diocese	-11.4151
▁Kingston	-11.4154
▁Porter	-11.4157
▁Kumar	-11.4157
▁ft	-11.4159
▁Marcus	-11.4159
▁Gas	-11.416
▁gameplay	-11.4161
fu	-11.4168
▁allocated	-11.4168
▁conquest	-11.417
▁Without	-11.4174
del	-11.4175
▁competitors	-11.4175
▁hub	-11.4184
▁customs	-11.4185
▁lie	-11.4187
▁Armstrong	-11.4187
▁Off	-11.4188
▁Ash	-11.4189
▁Julia	-11.419
▁fees	-11.4192
▁refuses	-11.4193
▁Andrews	-11.4195
▁centered	-11.4195
▁cat	-11.4196
▁proposals	-11.4196
▁Edmund	-11.4197
▁Glenn	-11.4198
▁runway	-11.4202
▁sheep	-11.4202
▁streaming	-11.4205
▁measuring	-11.4208
master	-11.421
▁suburbs	-11.421
▁Eu	-11.4212
▁Capitol	-11.4212
▁voyage	-11.4218
▁convoy	-11.4219
▁screenplay	-11.422
▁corporation	-11.422
▁grain	-11.422
▁Idaho	-11.4221
▁Manitoba	-11.4224
▁capabilities	-11.4224
▁preparing	-11.4224
▁occurring	-11.4224
▁Again	-11.4224
▁adoption	-11.4224
▁ritual	-11.4227
▁variants	-11.423
cher	-11.423
▁Giovanni	-11.4231
▁bout	-11.4232
▁Caroline	-11.4234
book	-11.4235
▁Universe	-11.4235
zer	-11.4237
▁chess	-11.4237
ser	-11.4239
▁strikes	-11.4239
▁Commercial	-11.4242
▁talking	-11.4245
▁dynamic	-11.4247
▁Duncan	-11.4247
▁n	-11.4256
▁Brooks	-11.4257
▁skill	-11.4258
▁hopes	-11.4258
▁compact	-11.4259
▁massacre	-11.4261
▁boarding	-11.4265
▁enjoy	-11.4265
▁Where	-11.4268
ī	-11.4271
▁socialist	-11.4272
▁convert	-11.4275
▁Tyler	-11.4276
German	-11.4277
▁Comedy	-11.428
shan	-11.428
▁occasional	-11.428
▁servant	-11.4286
▁sits	-11.4286
▁FBI	-11.4286
▁attract	-11.4286
▁dancer	-11.429
▁conspiracy	-11.4291
▁clothes	-11.4292
win	-11.4293
▁mature	-11.4296
▁stepped	-11.4296
▁Manager	-11.4297
ida	-11.4299
▁Relations	-11.4302
▁accordance	-11.4302
▁entries	-11.4302
var	-11.4306
▁Carol	-11.4306
▁Kyle	-11.4308
▁bearing	-11.4308
▁export	-11.431
▁consideration	-11.431
▁Distinguish	-11.4317
▁NATO	-11.4322
▁confusion	-11.4325
▁aerial	-11.4325
view	-11.4327
pre	-11.4329
▁array	-11.433
▁Mir	-11.433
▁kitchen	-11.4332
enberg	-11.4339
▁Chu	-11.4341
▁Rush	-11.4342
▁Eight	-11.4342
▁farmer	-11.4345
For	-11.4346
▁Complex	-11.4347
▁curriculum	-11.4347
▁arguing	-11.4347
▁Bradley	-11.4348
▁kilometres	-11.4349
▁Ronald	-11.4349
▁Nu	-11.4349
▁Sol	-11.4352
▁Arsenal	-11.4354
▁Boeing	-11.4355
▁lease	-11.4356
▁Franz	-11.4356
▁workshops	-11.4357
pin	-11.436
▁comics	-11.4362
▁continental	-11.4364
▁Fighter	-11.4376
about	-11.4377
▁equally	-11.4378
▁Malta	-11.4379
▁argue	-11.4382
lon	-11.4385
res	-11.4385
▁Critics	-11.4388
▁Morocco	-11.4388
▁sculptor	-11.4389
▁Reid	-11.4393
▁predicted	-11.4394
▁na	-11.4395
▁collapsed	-11.4397
▁Emmy	-11.4404
▁Depression	-11.4404
▁Planning	-11.4405
▁succeed	-11.4408
▁advocated	-11.4408
align	-11.441
▁Fernando	-11.4416
II	-11.4416
▁Martha	-11.4421
▁philosopher	-11.4428
▁Julian	-11.4429
▁unions	-11.4432
ei	-11.4436
▁layout	-11.4436
▁portraits	-11.4444
▁interviewed	-11.4448
▁Flying	-11.4448
▁Harper	-11.4449
▁absorbed	-11.445
▁Chancellor	-11.4451
party	-11.4451
▁Ne	-11.4453
des	-11.446
▁tag	-11.4463
▁thrown	-11.4466
▁receiver	-11.4466
▁zones	-11.4471
jan	-11.4472
▁autonomous	-11.4474
▁boxing	-11.4475
seat	-11.4476
▁HIV	-11.4478
play	-11.448
▁wake	-11.4481
▁Liberation	-11.4481
▁facade	-11.4482
▁estimates	-11.4483
▁marble	-11.4484
▁María	-11.4484
present	-11.4484
▁sight	-11.4486
▁MA	-11.4489
▁monitoring	-11.449
Don	-11.4491
▁commanding	-11.4491
ping	-11.4493
▁Being	-11.4499
▁innovative	-11.4501
▁cloud	-11.4503
▁Criminal	-11.4503
▁mosque	-11.4505
▁Hurricane	-11.4505
▁bankruptcy	-11.4507
▁Founded	-11.4508
▁Parliamentary	-11.4508
▁exploration	-11.451
Brien	-11.451
ure	-11.4511
▁horizontal	-11.4514
▁manufacture	-11.4514
▁Bailey	-11.4515
▁Sheriff	-11.4519
▁scope	-11.4524
▁upset	-11.4525
▁Fan	-11.4525
▁symbols	-11.4526
ick	-11.4526
▁Jun	-11.4527
▁shock	-11.4528
▁Rovers	-11.4529
▁Peak	-11.4531
▁undertaken	-11.4532
▁Lucy	-11.4534
▁legally	-11.4538
▁doubt	-11.4539
▁Simpson	-11.454
▁rhythm	-11.4541
▁unveiled	-11.4541
pm	-11.4543
▁Gay	-11.4545
▁virtually	-11.4547
▁Colonial	-11.4547
▁promotional	-11.4547
▁sporting	-11.455
▁stones	-11.4551
tion	-11.4552
▁Ab	-11.4554
bridge	-11.4555
▁creator	-11.4562
▁implement	-11.4563
▁handled	-11.4563
▁Preston	-11.4565
▁nicknamed	-11.4566
▁Dale	-11.4567
▁dozen	-11.4568
general	-11.4569
bel	-11.4569
▁aggregate	-11.4571
▁pm	-11.4572
▁voiced	-11.4573
▁pounds	-11.4576
▁Cho	-11.4576
▁flagship	-11.4576
▁reserved	-11.4577
▁comprised	-11.4578
▁peninsula	-11.4578
▁eat	-11.458
▁commemorate	-11.4584
July	-11.4584
▁willing	-11.4586
▁algorithm	-11.4587
▁southwestern	-11.4589
▁conversation	-11.4591
uri	-11.4594
▁holes	-11.4596
lane	-11.4597
▁emigrated	-11.4599
▁Factory	-11.46
▁firms	-11.4603
▁recreational	-11.4606
▁diagnosed	-11.4611
▁Windsor	-11.4612
south	-11.4613
▁imported	-11.4613
gal	-11.4615
▁Finals	-11.4616
▁AFL	-11.4617
▁cool	-11.462
▁intensity	-11.4623
▁wasn	-11.4624
▁raw	-11.4629
▁pull	-11.4633
▁mathematical	-11.4635
▁Nord	-11.4639
▁lectures	-11.4641
▁missionary	-11.4646
▁Campus	-11.4647
▁chorus	-11.4649
▁accompanying	-11.4649
▁Qu	-11.465
▁battalions	-11.465
▁Saskatchewan	-11.465
▁Rachel	-11.4651
▁instructions	-11.4651
▁murders	-11.4652
▁jet	-11.4653
▁biology	-11.4654
▁sheet	-11.4656
June	-11.4657
▁developments	-11.4658
▁orientation	-11.4658
▁guards	-11.4661
wide	-11.4661
▁conferences	-11.4664
▁ESPN	-11.4664
▁Hull	-11.4666
December	-11.4667
▁planted	-11.467
▁Iceland	-11.4675
▁sculptures	-11.4677
▁laps	-11.4679
▁rivalry	-11.4681
▁Musical	-11.4682
ward	-11.4682
▁Resources	-11.4682
▁faction	-11.4683
▁Kay	-11.4689
▁collecting	-11.4689
▁Living	-11.4695
▁fossil	-11.4695
▁Memphis	-11.4699
▁Mine	-11.4704
▁Shadow	-11.4705
org	-11.4706
▁delegation	-11.4709
▁edges	-11.471
chen	-11.471
▁toll	-11.4711
▁casting	-11.4713
▁landmark	-11.4713
▁Popular	-11.4715
▁diplomat	-11.4721
▁Hopkins	-11.4722
▁legacy	-11.4722
▁rookie	-11.4727
▁proportion	-11.4737
▁Hand	-11.4738
▁Salvador	-11.474
▁Nobel	-11.4741
▁Number	-11.4746
▁Rabbi	-11.4747
▁estimate	-11.4748
▁Track	-11.4751
▁neighbourhood	-11.4752
▁Kid	-11.4754
▁Berg	-11.4755
▁lifestyle	-11.4757
▁Cyprus	-11.4757
▁inches	-11.4759
▁fortune	-11.4763
▁depends	-11.4766
▁Albany	-11.4771
▁Safety	-11.4772
▁Hay	-11.4773
▁payments	-11.4775
▁Lutheran	-11.4776
▁Kor	-11.4777
▁developers	-11.4779
nu	-11.478
▁Kenneth	-11.4781
▁Ahmed	-11.4783
▁temples	-11.4785
▁Glass	-11.4788
▁Richardson	-11.4792
▁directing	-11.4792
▁desired	-11.4793
▁Cohen	-11.4797
▁Bears	-11.4797
▁varieties	-11.4798
▁Philosophy	-11.4798
▁vicinity	-11.4798
▁Against	-11.4798
▁reads	-11.4798
▁embarked	-11.4799
▁remix	-11.4799
▁discussions	-11.4803
▁separately	-11.4804
kov	-11.4805
▁Case	-11.4806
▁accidentally	-11.4806
▁Scout	-11.4808
ff	-11.481
▁Canyon	-11.481
▁Henderson	-11.481
▁Milton	-11.4811
▁specimen	-11.4818
▁successive	-11.4821
▁beer	-11.4822
▁Mann	-11.4823
▁northwestern	-11.4823
ky	-11.4825
▁introduce	-11.4827
▁dense	-11.4827
▁Allan	-11.4829
▁Miles	-11.4833
tis	-11.4835
▁Agricultural	-11.4839
▁probability	-11.484
▁HMS	-11.4841
▁Kin	-11.4843
▁riders	-11.4845
▁prohibited	-11.4846
public	-11.4847
▁altar	-11.4848
▁repairs	-11.4849
▁disputed	-11.4851
▁consistently	-11.4852
▁Op	-11.4856
▁NASCAR	-11.4857
▁wildlife	-11.4857
▁Arctic	-11.4857
▁Pine	-11.486
▁pen	-11.4861
▁Plymouth	-11.4862
ians	-11.4867
▁architects	-11.4871
▁hurricane	-11.4871
▁Architecture	-11.4872
▁proceedings	-11.4872
▁surrendered	-11.4875
▁shoulder	-11.4877
▁invitation	-11.4881
▁Brighton	-11.4882
▁associations	-11.4883
▁XI	-11.4883
▁eliminate	-11.4884
▁premises	-11.4888
▁decree	-11.4892
▁salary	-11.4893
▁taste	-11.4896
ap	-11.4898
▁elaborate	-11.4898
September	-11.4899
▁outlets	-11.4901
▁wheels	-11.4904
▁necessarily	-11.4905
action	-11.4909
▁sponsorship	-11.4917
▁politically	-11.4918
ile	-11.4923
president	-11.4924
▁Thunder	-11.4924
▁LGBT	-11.4925
▁curve	-11.4928
▁peer	-11.4933
▁clerk	-11.4938
▁Karen	-11.4939
this	-11.4946
▁axis	-11.4948
oriented	-11.4948
▁presenting	-11.4949
▁jointly	-11.4952
▁Silva	-11.4952
▁constituencies	-11.4952
▁Walt	-11.4955
▁Dorothy	-11.4957
▁recurring	-11.4959
ble	-11.4961
▁Th	-11.4961
▁Halifax	-11.4963
▁Inn	-11.4963
▁considerably	-11.4965
▁Planet	-11.4967
pi	-11.4969
▁bold	-11.4971
▁Frankfurt	-11.4973
▁batteries	-11.4977
▁genres	-11.4977
▁highlighted	-11.498
▁Chilean	-11.4981
▁Speaker	-11.4982
▁aggressive	-11.4982
▁premier	-11.4983
rat	-11.4983
▁voices	-11.4983
▁tight	-11.4984
▁USS	-11.4986
▁destroying	-11.4987
▁comedian	-11.4988
▁ancestry	-11.4989
▁contracted	-11.4991
▁Original	-11.4992
▁VIII	-11.4992
▁constantly	-11.4995
▁Filipino	-11.4996
school	-11.4997
▁gates	-11.4998
▁considers	-11.5001
▁oak	-11.5004
▁deals	-11.5004
▁wrestler	-11.5005
▁Writers	-11.501
▁ITV	-11.5011
▁Double	-11.5015
▁feminist	-11.5015
▁professionals	-11.5015
▁preservation	-11.5015
▁bulk	-11.5017
▁presenter	-11.5022
▁respond	-11.5023
▁McDonald	-11.5025
▁Fraser	-11.5025
▁Burton	-11.5026
▁diving	-11.5031
▁badly	-11.5031
▁solve	-11.5033
▁loved	-11.5036
▁supervision	-11.5037
ong	-11.5041
enko	-11.5045
▁agrees	-11.5046
▁Powell	-11.505
▁secular	-11.5053
▁pink	-11.5058
▁openly	-11.5058
▁sponsor	-11.5061
▁dimensions	-11.5063
▁legendary	-11.5065
▁challenging	-11.5068
ora	-11.5068
▁metre	-11.5069
▁Springfield	-11.507
▁overcome	-11.5075
▁hitting	-11.5076
▁pursuit	-11.5078
▁wars	-11.5081
▁sustainable	-11.5081
▁Warriors	-11.5082
tin	-11.5084
archived	-11.5085
▁dressed	-11.5085
English	-11.5086
▁Krishna	-11.5088
▁resign	-11.5088
▁Crystal	-11.5091
▁Mind	-11.5091
▁acclaimed	-11.5091
▁slopes	-11.5095
▁removing	-11.5098
▁Lithuanian	-11.5098
▁Institution	-11.5106
▁Tin	-11.5107
▁violin	-11.5107
▁incidents	-11.5108
▁Mc	-11.511
▁Various	-11.511
▁dealt	-11.5111
▁Bang	-11.5111
▁currency	-11.5111
▁arc	-11.5112
▁Slovenia	-11.5113
▁basement	-11.5114
▁ad	-11.5115
▁Kirk	-11.5117
▁notion	-11.5118
▁Edge	-11.5119
▁Istanbul	-11.512
▁Linda	-11.5121
▁Republicans	-11.5121
▁NSW	-11.5124
▁IBM	-11.5126
▁Walk	-11.5128
▁explanation	-11.5131
▁Cavalry	-11.5134
▁Headquarters	-11.5134
▁Ye	-11.5135
▁Micro	-11.5135
▁Money	-11.5135
▁kings	-11.5136
▁knocked	-11.5136
▁Mai	-11.5137
▁Curtis	-11.5139
▁thriller	-11.5139
▁distant	-11.514
▁bowl	-11.5141
▁narrowly	-11.5141
Do	-11.5143
▁Robertson	-11.5145
▁vacant	-11.5146
▁sensitive	-11.5146
▁subfamily	-11.5147
November	-11.5149
▁le	-11.515
▁Gill	-11.5151
▁Get	-11.5152
▁differ	-11.5153
▁theology	-11.5155
▁Forbes	-11.5157
▁abstract	-11.5157
▁elimination	-11.5158
▁optical	-11.5159
▁Testament	-11.5159
▁Buddha	-11.5159
▁knows	-11.5165
▁proximity	-11.5171
▁vital	-11.5171
▁spectrum	-11.5173
▁activated	-11.5175
▁Gang	-11.5176
▁crowned	-11.5178
▁Haven	-11.5179
▁draws	-11.518
▁mechanisms	-11.518
▁cameras	-11.5181
▁Nathan	-11.5181
▁Sweet	-11.5182
▁Doug	-11.5183
▁Morrison	-11.5187
pp	-11.519
▁rendered	-11.519
▁mineral	-11.5192
▁Orlando	-11.5192
ins	-11.5192
▁physically	-11.5198
▁wait	-11.5201
▁commissioner	-11.5201
▁Coalition	-11.5204
▁Tur	-11.5204
▁testimony	-11.5208
▁Baltic	-11.5211
▁Clay	-11.5212
▁MD	-11.5212
second	-11.5212
October	-11.5212
▁innovation	-11.5214
▁André	-11.5216
▁referee	-11.5217
▁excess	-11.5218
▁Chronicle	-11.5219
par	-11.522
▁Drake	-11.522
▁Hon	-11.5221
▁reviewer	-11.5223
▁rushing	-11.5225
▁rape	-11.5228
Le	-11.5229
▁arose	-11.5229
▁substance	-11.5233
Co	-11.5234
▁thermal	-11.5235
▁discipline	-11.5236
▁Yellow	-11.5237
▁humanity	-11.5237
▁Lancaster	-11.5238
▁maternal	-11.5239
▁naturally	-11.524
burn	-11.5246
▁Gospel	-11.5247
powered	-11.5251
▁theoretical	-11.5253
▁genera	-11.5254
▁Bass	-11.526
▁revolt	-11.526
ā	-11.5262
▁manual	-11.5263
▁partnered	-11.5265
▁propaganda	-11.5268
▁Physics	-11.5268
▁Card	-11.5271
▁UFC	-11.5275
▁ski	-11.5275
▁crop	-11.5276
▁instructor	-11.5282
▁Eugene	-11.5284
▁rises	-11.5285
▁Full	-11.5291
istic	-11.5291
▁Male	-11.5292
▁View	-11.5294
▁Store	-11.5296
mu	-11.5296
ft	-11.5296
▁Ballet	-11.53
▁grandmother	-11.5301
▁Picture	-11.5303
▁scales	-11.5303
▁vulnerable	-11.5306
▁reopened	-11.5309
▁tension	-11.5319
rate	-11.5321
▁define	-11.5325
▁harbour	-11.5325
▁mis	-11.5327
▁romance	-11.533
▁Nadu	-11.5331
responsibilities	-11.5331
▁accuracy	-11.5331
▁hypothesis	-11.5331
▁Var	-11.5332
ene	-11.5332
▁vinyl	-11.5332
▁contestants	-11.5335
▁refuge	-11.5335
▁Lyon	-11.5338
▁caps	-11.5341
▁factories	-11.5345
▁exhibits	-11.5347
▁facilitate	-11.5349
▁Mega	-11.5349
▁admission	-11.5352
has	-11.5355
▁loyal	-11.5356
▁healthcare	-11.5357
▁Nan	-11.5357
▁Mur	-11.5358
▁Lynn	-11.5359
▁Fi	-11.5362
▁Sin	-11.5362
▁surfaces	-11.5363
▁performer	-11.5363
▁listing	-11.5365
▁dinner	-11.5365
▁Fellowship	-11.537
▁continuously	-11.5374
▁retire	-11.5376
▁eating	-11.5385
▁codes	-11.5392
▁geographical	-11.5394
Mo	-11.5395
▁Contest	-11.5397
▁smoke	-11.5404
▁insects	-11.5406
▁strategies	-11.5407
dia	-11.5408
▁Bronze	-11.5414
▁download	-11.5418
▁endorsed	-11.5419
▁ceremonies	-11.5419
▁Wildlife	-11.5419
▁shield	-11.542
▁artifacts	-11.542
▁Wi	-11.5422
▁pan	-11.5423
▁Wednesday	-11.5425
▁Principal	-11.5428
▁conceived	-11.543
▁depot	-11.543
▁knockout	-11.5432
qua	-11.5435
▁Reynolds	-11.5437
▁Seoul	-11.5439
anti	-11.5441
▁Janeiro	-11.5444
best	-11.5451
▁disabled	-11.5451
▁Programme	-11.5452
▁Jesse	-11.5453
▁certainly	-11.5456
▁congressional	-11.5457
▁Ty	-11.5458
▁suburban	-11.5462
▁Barnes	-11.5463
▁Sisters	-11.5463
▁custody	-11.5469
▁para	-11.547
▁Copa	-11.5475
▁bones	-11.5478
▁prominence	-11.5482
▁navy	-11.5482
▁Yuan	-11.5483
League	-11.5483
▁Episcopal	-11.5484
▁kinds	-11.5486
▁Prussia	-11.5487
▁monitor	-11.5488
▁joins	-11.5499
▁skull	-11.55
▁absent	-11.5501
▁broadcaster	-11.5501
▁Recording	-11.5501
▁velocity	-11.5503
▁neo	-11.5503
▁beds	-11.5504
▁Cornwall	-11.5506
zy	-11.5509
▁gross	-11.5518
▁synthesis	-11.5519
▁memories	-11.552
▁Cardiff	-11.552
▁Bradford	-11.552
▁scattered	-11.5521
▁Burke	-11.5524
▁navigation	-11.5526
▁companion	-11.5526
▁advancing	-11.5533
▁Rochester	-11.5533
▁Ming	-11.5533
▁invested	-11.5536
▁Elliott	-11.5536
ding	-11.5537
ids	-11.5537
▁Alexandria	-11.5541
▁preventing	-11.5541
▁trips	-11.5542
cal	-11.5542
▁Similar	-11.5543
▁correspondence	-11.5546
▁Faith	-11.5546
Ireland	-11.5549
opted	-11.5552
▁Chess	-11.5554
Go	-11.5555
▁Griffin	-11.5555
▁Ludwig	-11.5555
▁flowering	-11.5557
▁uncertain	-11.5558
▁Any	-11.5564
▁monks	-11.5564
▁Change	-11.5565
▁Pitt	-11.5565
▁reader	-11.5565
▁trophy	-11.5567
av	-11.5567
ero	-11.5572
▁demonstration	-11.5574
▁allied	-11.5582
▁Thames	-11.5582
▁adopt	-11.5583
▁opens	-11.5584
▁Inside	-11.5587
ira	-11.5587
▁tactics	-11.5591
▁Pe	-11.5596
▁MLB	-11.5597
▁Ur	-11.5598
▁Batman	-11.5598
order	-11.5599
▁True	-11.56
▁sweet	-11.5605
▁commercially	-11.5607
ane	-11.5608
▁civic	-11.5609
ese	-11.561
▁terrorist	-11.5613
▁Newman	-11.5616
▁arguments	-11.562
▁rulers	-11.5621
CD	-11.5622
▁tackle	-11.5623
▁auction	-11.5634
▁Stein	-11.5634
ator	-11.5634
▁Churchill	-11.5637
▁resided	-11.5639
▁bore	-11.564
▁Cao	-11.564
▁certificate	-11.5643
▁Estonia	-11.5643
▁rectangular	-11.5644
▁Sons	-11.5645
▁Ger	-11.5645
▁stint	-11.5647
▁uprising	-11.5648
▁surgeon	-11.5648
▁demo	-11.5651
▁OS	-11.5654
▁Task	-11.5655
▁ballet	-11.5658
▁Settlement	-11.566
▁CIA	-11.5661
▁Statistics	-11.5661
▁utility	-11.5661
▁guided	-11.5661
▁Mail	-11.5661
▁equality	-11.5663
▁Archives	-11.5664
▁underlying	-11.5665
▁enhanced	-11.5666
▁reflects	-11.567
▁Edmonton	-11.5674
▁pollution	-11.5674
▁MS	-11.5674
She	-11.5676
ric	-11.5678
▁Beatles	-11.5679
ites	-11.5682
cut	-11.5683
▁composers	-11.5685
▁Metacritic	-11.5687
▁mi	-11.5691
▁copyright	-11.5692
▁Online	-11.5694
▁Pink	-11.5696
▁Enterprise	-11.5697
▁prosecution	-11.5699
▁Jake	-11.5701
▁Course	-11.5702
▁Lakes	-11.5704
nie	-11.5705
▁Naples	-11.5707
▁killer	-11.5709
▁Herman	-11.5711
▁Working	-11.5713
▁Watch	-11.5713
▁explored	-11.5717
▁Eye	-11.5718
▁Das	-11.5719
▁Belfast	-11.572
▁François	-11.5722
▁pregnancy	-11.5725
▁Leslie	-11.5726
▁coin	-11.5727
hop	-11.5728
▁Theodore	-11.5728
▁lacked	-11.573
▁Ibn	-11.5731
▁feeding	-11.5731
▁molecules	-11.5732
▁Classical	-11.5732
▁luxury	-11.5732
▁Manor	-11.5733
▁achieving	-11.5736
▁snake	-11.5737
▁bounded	-11.5738
▁lasting	-11.5738
▁USSR	-11.5738
▁Nacional	-11.5738
▁preceding	-11.5738
▁declaration	-11.5744
▁Speed	-11.5749
▁Parks	-11.5749
▁Jennifer	-11.575
▁undertook	-11.5754
▁Ellen	-11.576
▁demonstrate	-11.5761
▁ceiling	-11.5762
▁Pirates	-11.5762
▁intact	-11.5765
▁Hayes	-11.5765
▁Notre	-11.5766
▁united	-11.5767
had	-11.5767
▁Rai	-11.5768
Big	-11.5769
▁Choice	-11.5769
▁organize	-11.577
heim	-11.5775
▁Wagner	-11.5775
▁invaded	-11.5779
▁quarters	-11.5782
▁Rhine	-11.5785
▁Indo	-11.5788
▁Eurovision	-11.579
▁Mobile	-11.5791
▁healthy	-11.5791
▁trailer	-11.5792
▁loose	-11.5793
▁recreation	-11.5796
Me	-11.5797
▁controlling	-11.5797
▁proclaimed	-11.5797
▁torpedo	-11.5798
▁drives	-11.5798
▁merchants	-11.5803
▁urged	-11.5804
▁steep	-11.5808
▁errors	-11.5811
▁hotels	-11.5814
▁Rey	-11.5814
▁derives	-11.5816
▁Rifle	-11.5817
▁longtime	-11.582
▁calculated	-11.5821
▁Mercury	-11.5822
▁Female	-11.5824
bert	-11.5824
▁seal	-11.583
▁Colony	-11.583
▁comment	-11.5832
▁brands	-11.5834
▁harm	-11.5835
▁membrane	-11.5836
▁deceased	-11.5839
▁rounded	-11.5842
▁Cu	-11.5842
▁protecting	-11.5843
sel	-11.5843
▁viewing	-11.5847
▁Swan	-11.5848
▁Chuck	-11.5849
ide	-11.5854
▁Kurt	-11.5854
▁violation	-11.5858
▁UTC	-11.586
▁Lords	-11.5861
▁Antarctic	-11.5865
▁Dylan	-11.5869
▁cream	-11.587
▁complicated	-11.588
▁authored	-11.5882
lock	-11.5883
illa	-11.5884
▁regiments	-11.5885
val	-11.5886
▁editing	-11.5889
▁item	-11.5891
▁veterans	-11.5891
bound	-11.5895
▁granite	-11.5895
▁educator	-11.5897
January	-11.5897
▁lens	-11.5898
nis	-11.5898
▁Wyoming	-11.59
▁bonds	-11.5901
▁anthology	-11.5909
▁Marshal	-11.5911
box	-11.5913
▁Fr	-11.5913
▁BA	-11.5914
▁Che	-11.5919
▁pronounced	-11.592
shot	-11.592
▁workshop	-11.5921
▁Apollo	-11.5921
▁nest	-11.5922
▁quit	-11.5924
▁Castro	-11.5929
▁Māori	-11.5931
▁remarkable	-11.5934
▁performs	-11.5934
▁Burns	-11.5936
▁flee	-11.5936
▁Logan	-11.5937
▁Summit	-11.5943
mes	-11.5945
▁introducing	-11.5946
▁sail	-11.5947
looking	-11.5947
▁Baldwin	-11.5948
▁lock	-11.5948
▁proceeds	-11.5949
▁Got	-11.5951
▁statistical	-11.5954
▁breast	-11.5956
▁passion	-11.5958
▁saving	-11.596
▁CA	-11.5961
ice	-11.5961
▁Xi	-11.5962
▁lover	-11.5964
▁Blu	-11.5965
▁Roll	-11.5966
▁Anton	-11.5967
▁investigations	-11.5967
▁minimal	-11.597
▁entities	-11.5975
▁Dal	-11.5976
▁Ahmad	-11.5976
▁balls	-11.5978
▁agreements	-11.598
etti	-11.598
nam	-11.5986
▁accommodation	-11.5991
bury	-11.5992
▁offense	-11.5993
▁avoided	-11.5994
▁consumers	-11.5998
▁Ri	-11.6
▁subspecies	-11.6002
▁sky	-11.6004
▁cabin	-11.6007
rie	-11.6008
▁Joy	-11.6008
▁Mat	-11.6009
king	-11.6009
eng	-11.601
▁cluster	-11.6012
our	-11.6012
▁Trek	-11.6017
▁obtaining	-11.6017
▁Hood	-11.6022
▁rescued	-11.6022
▁Rocky	-11.6024
▁rubber	-11.6025
▁disk	-11.6028
▁chaired	-11.6028
▁enterprise	-11.6029
▁insisted	-11.6029
▁Thor	-11.603
▁conviction	-11.6032
▁Banks	-11.6032
▁Ethiopia	-11.6034
▁unsuccessfully	-11.6034
▁logic	-11.6034
▁Herzegovina	-11.6037
▁Exhibition	-11.6039
▁finite	-11.604
▁Apart	-11.604
▁el	-11.6042
▁examined	-11.6044
▁Hugo	-11.6047
ú	-11.6048
▁parade	-11.6053
▁breed	-11.6055
▁deployment	-11.6055
▁Gran	-11.6055
▁Bio	-11.6056
▁Oslo	-11.6057
olo	-11.6058
▁Has	-11.6058
▁Buddhism	-11.6061
▁Devil	-11.6062
horn	-11.6063
▁planes	-11.6064
▁spotted	-11.6064
▁slot	-11.6064
▁Malaysian	-11.6065
▁Chad	-11.6065
▁Webb	-11.6067
▁mythology	-11.6068
sey	-11.607
▁barrier	-11.6072
▁Superior	-11.6078
▁foundations	-11.6078
ovich	-11.6082
▁Adrian	-11.6082
▁consciousness	-11.6085
▁believing	-11.6088
▁broader	-11.609
▁Winnipeg	-11.6091
▁protesters	-11.6093
▁acceptance	-11.6093
▁Pole	-11.6094
▁reunited	-11.6096
▁aside	-11.6097
▁Cave	-11.6098
▁bills	-11.6098
▁Legal	-11.61
▁autobiography	-11.61
▁enacted	-11.6103
š	-11.6103
meter	-11.6104
maker	-11.6104
▁Edgar	-11.6106
ona	-11.6107
▁PA	-11.6108
▁hull	-11.6109
cu	-11.6109
▁priority	-11.6112
▁elderly	-11.6113
▁senator	-11.6115
▁tickets	-11.6119
▁Housing	-11.6123
▁Nor	-11.6124
▁Nam	-11.6124
▁Mas	-11.6126
▁Hardy	-11.6127
▁Yankees	-11.6129
production	-11.6129
▁proven	-11.613
▁struggles	-11.6131
▁spelled	-11.6132
▁counts	-11.6132
▁Sherman	-11.6138
▁complement	-11.6148
▁Heavyweight	-11.6149
▁witnesses	-11.6151
▁Gro	-11.6155
▁wished	-11.6155
▁circles	-11.6156
▁Monument	-11.6158
▁Tropical	-11.6158
▁fiscal	-11.6163
▁Grammar	-11.6163
qui	-11.6164
▁reinforced	-11.6165
▁CO	-11.6166
western	-11.6168
▁Previously	-11.6169
▁Trinidad	-11.617
▁Algeria	-11.6172
nt	-11.6172
▁Charleston	-11.6173
▁Santos	-11.6173
ries	-11.6173
af	-11.6174
▁Dong	-11.6174
▁mysterious	-11.6174
oka	-11.6175
▁fights	-11.6175
▁Monroe	-11.6177
▁Speedway	-11.6177
▁Bou	-11.6179
pro	-11.6182
▁Prussian	-11.6183
▁Shore	-11.6183
▁Tal	-11.6185
▁Built	-11.6185
▁Moses	-11.6186
▁lady	-11.6188
▁Wa	-11.6192
▁Prison	-11.6192
▁fabric	-11.6193
▁settings	-11.6197
▁nationalist	-11.6198
▁donations	-11.6201
When	-11.6202
▁maritime	-11.6203
bus	-11.6204
▁unlikely	-11.6208
▁gods	-11.6209
▁Confederation	-11.621
▁kids	-11.6211
ans	-11.6212
▁impression	-11.6215
▁Kane	-11.6216
▁Raw	-11.6219
▁Ghost	-11.6221
▁judgment	-11.6222
▁Bas	-11.6224
▁tobacco	-11.6225
▁Ze	-11.6226
February	-11.623
▁Reagan	-11.6231
▁committees	-11.6232
▁inland	-11.6232
AM	-11.6232
▁Claude	-11.6234
▁Well	-11.6236
▁corn	-11.6241
▁volcanic	-11.6241
screen	-11.6241
▁Ru	-11.6242
▁Others	-11.6242
▁quiet	-11.6242
▁Pin	-11.6243
▁accounting	-11.6245
▁essays	-11.6245
▁Presidential	-11.6247
▁bishops	-11.6247
▁Ser	-11.6248
▁Leicester	-11.6252
▁photograph	-11.6255
▁Gaelic	-11.6255
▁embassy	-11.6258
▁Lion	-11.6259
cia	-11.6262
▁Marion	-11.6266
▁Heaven	-11.6268
▁bow	-11.6268
tt	-11.6269
▁Netflix	-11.6271
▁Shiva	-11.6272
▁mono	-11.6276
▁Julius	-11.628
▁evaluation	-11.628
▁Ever	-11.6281
Love	-11.6282
▁truly	-11.6282
▁Ce	-11.6282
▁lawyers	-11.6283
▁Yugoslav	-11.6283
▁Edwin	-11.6285
▁Blair	-11.6286
▁Fiction	-11.6286
▁fur	-11.6287
▁Overall	-11.629
bed	-11.6291
”,	-11.6292
ila	-11.6295
▁attractive	-11.6296
▁fragments	-11.6298
▁Portsmouth	-11.6299
▁philosophical	-11.6299
▁Im	-11.6301
▁freshman	-11.6302
▁meter	-11.6302
▁initiatives	-11.6303
▁Legend	-11.6305
▁Beck	-11.6306
▁Thursday	-11.6307
▁Johnston	-11.6307
▁rolling	-11.6308
▁unemployment	-11.6313
yang	-11.6313
▁Kat	-11.6315
South	-11.6316
▁delegates	-11.6318
▁marketed	-11.6318
▁sued	-11.6324
▁Broad	-11.6325
▁resolved	-11.6325
▁barrel	-11.6327
▁garnered	-11.6328
▁complaints	-11.6334
▁graph	-11.6334
▁emissions	-11.6336
▁shrine	-11.6336
▁mechanics	-11.6338
▁staying	-11.6341
▁obvious	-11.6344
▁mystery	-11.6345
▁Maha	-11.6346
▁Kam	-11.6349
▁Industries	-11.6354
▁warned	-11.6357
▁Holocaust	-11.6362
▁Cornell	-11.6362
▁Annie	-11.6364
▁hectares	-11.6364
eri	-11.6364
▁promising	-11.6365
▁Clara	-11.6367
..."	-11.6369
▁Sex	-11.6369
▁Cor	-11.637
▁rap	-11.6372
▁electron	-11.6372
tum	-11.6372
osa	-11.6379
▁Rain	-11.638
▁lesser	-11.6385
▁Additional	-11.6386
▁boom	-11.6392
▁sudden	-11.6393
mark	-11.6394
Be	-11.6395
ming	-11.6395
▁garage	-11.6396
▁organizing	-11.6396
▁Crime	-11.6397
▁hiding	-11.6398
▁translator	-11.6398
▁Jamie	-11.64
▁leather	-11.6402
▁speaks	-11.6403
▁transform	-11.6404
sia	-11.6407
▁alien	-11.6408
▁Maritime	-11.641
▁modes	-11.6412
▁witnessed	-11.6415
▁lifted	-11.6416
▁amendment	-11.6418
▁blog	-11.6418
▁Terminal	-11.6419
▁Tennis	-11.6421
▁Pol	-11.6426
▁pastor	-11.6426
▁dancers	-11.6431
▁Bart	-11.6431
there	-11.6432
▁measurement	-11.6433
chan	-11.6435
▁Tribune	-11.6435
▁mirror	-11.6435
▁knowing	-11.6436
eta	-11.6437
▁nursing	-11.6437
▁epic	-11.6438
▁poets	-11.6438
▁fault	-11.6441
▁certification	-11.6441
▁labels	-11.6442
▁Winston	-11.6445
Pro	-11.6446
▁tables	-11.6447
▁revealing	-11.6447
gel	-11.6448
▁Andrea	-11.6448
▁yield	-11.6448
▁Jeremy	-11.6449
▁Southwest	-11.6449
▁Kosovo	-11.6451
▁Baronet	-11.6452
▁continent	-11.6452
▁verses	-11.6454
▁Slovak	-11.6457
▁Malcolm	-11.6458
▁butterfly	-11.6458
▁trails	-11.6458
aga	-11.6459
although	-11.646
▁athletics	-11.6461
▁creek	-11.6462
▁Potter	-11.6462
▁Take	-11.6463
▁Romans	-11.6464
▁fed	-11.6467
▁Say	-11.6471
▁Lt	-11.6471
▁Heinrich	-11.6472
far	-11.6474
form	-11.6475
▁drainage	-11.6479
▁AllMusic	-11.648
▁transmitter	-11.6481
▁screened	-11.6482
▁Slovakia	-11.6482
▁directions	-11.6485
▁Troy	-11.6486
▁Heath	-11.6489
SR	-11.6491
▁liver	-11.6492
▁Julie	-11.6492
▁decorative	-11.6493
▁tune	-11.6495
▁goddess	-11.6495
▁projected	-11.6497
▁Constitutional	-11.6498
▁colleague	-11.6505
▁Theory	-11.6506
▁nobility	-11.6507
▁noticed	-11.6512
▁enrollment	-11.6512
▁Catholics	-11.6513
▁Generation	-11.6513
lit	-11.6514
▁secretly	-11.6516
▁dropping	-11.6517
▁nave	-11.6521
▁wishes	-11.6524
▁Train	-11.6526
▁Kids	-11.653
▁Nixon	-11.6531
▁Qing	-11.6532
signed	-11.6533
▁Fer	-11.6537
▁adds	-11.6542
▁Ci	-11.6546
▁cycling	-11.6547
▁loans	-11.6548
▁Crawford	-11.6557
▁Dai	-11.6558
▁parishes	-11.6561
▁explicitly	-11.6565
lia	-11.6567
ert	-11.657
▁Luxembourg	-11.6574
▁escort	-11.6576
▁Beat	-11.6579
▁trucks	-11.658
▁pack	-11.6583
▁Carlo	-11.6585
▁walks	-11.6587
▁motorcycle	-11.6588
'''	-11.6588
gy	-11.6591
▁inquiry	-11.6591
▁remember	-11.6593
▁opinions	-11.6593
▁trace	-11.6594
Or	-11.6594
playing	-11.6596
▁immigrant	-11.6601
wrote	-11.6601
▁liked	-11.6601
French	-11.6603
▁laser	-11.6604
bin	-11.6605
▁sick	-11.6607
▁Carroll	-11.6608
▁starter	-11.6613
▁Islander	-11.6615
▁climb	-11.6618
▁habitats	-11.6619
▁Counties	-11.662
▁Combat	-11.6621
▁Lab	-11.6626
▁Ol	-11.6629
▁Marco	-11.663
▁museums	-11.6633
European	-11.6633
▁Bern	-11.6633
World	-11.6633
▁unity	-11.6634
▁remarked	-11.6635
▁lateral	-11.6639
▁Marines	-11.6641
▁raids	-11.6641
▁slight	-11.6642
▁bread	-11.6642
▁Brother	-11.6645
raj	-11.6649
▁particle	-11.665
▁Cairo	-11.665
▁Tr	-11.6651
▁communicate	-11.6652
▁sectors	-11.6654
▁Associate	-11.6659
▁commerce	-11.6661
post	-11.6662
▁Achievement	-11.6662
ological	-11.6664
▁spite	-11.6666
▁Half	-11.6667
▁owns	-11.6668
ag	-11.6668
Ma	-11.667
▁disorders	-11.6672
▁dimension	-11.6675
fe	-11.6676
▁Dodgers	-11.6677
▁strictly	-11.668
▁poly	-11.6683
aria	-11.6692
▁machinery	-11.6693
▁Telegraph	-11.6693
▁lord	-11.6694
▁cruise	-11.6699
▁Bavaria	-11.6701
▁capturing	-11.6701
▁suspect	-11.6706
▁chest	-11.6706
▁Expedition	-11.6713
▁mandatory	-11.6715
▁swing	-11.6718
▁Sugar	-11.6719
▁surveillance	-11.6719
▁Hampton	-11.672
▁pottery	-11.672
ado	-11.6724
▁interrupted	-11.6727
▁lengths	-11.6727
▁Providence	-11.6727
▁Rhodes	-11.6728
▁ancestors	-11.6729
▁pub	-11.6729
▁recommendations	-11.673
▁Spa	-11.6731
▁detection	-11.6732
▁fail	-11.6734
ō	-11.6738
▁bat	-11.6739
zen	-11.674
ib	-11.6741
▁Char	-11.6741
▁commit	-11.6744
▁preceded	-11.6748
▁terminated	-11.675
▁Learning	-11.675
▁Leipzig	-11.6752
▁Bedford	-11.6756
▁dome	-11.6757
▁costume	-11.6758
▁Pal	-11.6758
▁seemingly	-11.6759
▁Diana	-11.6762
▁Amateur	-11.6763
▁fruits	-11.6763
▁Zi	-11.6763
tro	-11.6767
▁Aberdeen	-11.6767
▁bordered	-11.6767
▁narrator	-11.6769
▁Mil	-11.677
around	-11.6771
▁reconnaissance	-11.6771
▁mandate	-11.6773
▁entrepreneur	-11.6776
▁Tre	-11.6777
▁Bombay	-11.6778
▁verb	-11.6778
bon	-11.6782
▁perception	-11.6783
▁convince	-11.6787
▁assume	-11.6787
▁reliable	-11.6788
▁Belle	-11.6789
▁affiliation	-11.679
▁struggling	-11.6791
▁Literary	-11.6791
▁wound	-11.6793
good	-11.6794
▁purple	-11.6795
▁filmmaker	-11.6796
▁backup	-11.6797
▁governance	-11.6798
specific	-11.6805
lie	-11.6809
▁Ny	-11.6815
range	-11.6815
▁mild	-11.6816
▁Walsh	-11.6816
▁humor	-11.6816
mal	-11.6817
▁Mini	-11.6817
▁explaining	-11.6818
▁collector	-11.682
▁Southampton	-11.6821
▁equity	-11.6823
▁detected	-11.6825
▁cooking	-11.6825
▁Ecuador	-11.6826
▁Academic	-11.6827
▁illustrations	-11.6827
▁newer	-11.6827
▁Nar	-11.6828
tti	-11.683
▁holder	-11.6833
▁log	-11.6834
▁endangered	-11.6835
▁complications	-11.6837
▁monarchy	-11.6838
▁Graduate	-11.6838
▁strain	-11.6839
▁Constantinople	-11.6839
▁Buck	-11.684
▁sends	-11.684
▁provider	-11.6841
▁servants	-11.6841
▁Rama	-11.6845
▁remake	-11.6851
▁Xbox	-11.6851
▁Sabha	-11.6852
designated	-11.6853
▁Brand	-11.6854
brook	-11.6855
▁strings	-11.6858
▁Panthers	-11.6858
▁pine	-11.6861
▁Budapest	-11.6863
▁infant	-11.6863
▁fossils	-11.6864
▁trapped	-11.6865
▁excluded	-11.6866
▁persuaded	-11.6866
▁enabl	-11.6867
▁Row	-11.6871
▁fusion	-11.6872
▁Tasmania	-11.6874
▁apartments	-11.6875
▁finger	-11.6876
▁Examples	-11.6877
▁missiles	-11.6877
▁expense	-11.6878
▁Carnegie	-11.6878
▁Cancer	-11.6878
▁possessed	-11.6881
▁blamed	-11.6881
▁dorsal	-11.6885
▁Qatar	-11.6887
▁Pet	-11.6887
▁Sch	-11.6889
▁($	-11.6889
▁cognitive	-11.6892
▁correspondent	-11.6893
▁neighborhoods	-11.6893
▁enlarged	-11.6893
▁descended	-11.6894
▁charted	-11.6896
wick	-11.6896
Sa	-11.6897
▁alignment	-11.6899
▁rent	-11.69
▁invention	-11.69
▁interactive	-11.6901
▁Nottingham	-11.6901
Na	-11.6901
▁requests	-11.6904
▁Richards	-11.6904
▁spectators	-11.6905
▁replied	-11.6907
▁playwright	-11.6908
▁bigger	-11.6908
▁platinum	-11.6911
▁Ulster	-11.6911
ification	-11.6913
▁theaters	-11.6921
hal	-11.6922
▁oversaw	-11.6924
▁Self	-11.6924
▁managers	-11.6926
▁worse	-11.6926
▁throwing	-11.6927
▁Zoo	-11.6927
▁dust	-11.6937
▁inscriptions	-11.6939
▁similarities	-11.6939
▁Myanmar	-11.6939
▁Madonna	-11.6944
▁Freeman	-11.6945
▁sunk	-11.6946
▁supervised	-11.6947
▁rankings	-11.6948
mel	-11.695
▁aesthetic	-11.695
▁flown	-11.6951
teau	-11.6951
▁postponed	-11.6952
▁mask	-11.6952
▁portrayal	-11.6953
zu	-11.6953
▁critically	-11.6954
▁differential	-11.6955
▁peaceful	-11.6956
▁Nash	-11.6959
▁guidelines	-11.6959
▁variables	-11.696
▁Greene	-11.6964
stad	-11.6964
▁Poly	-11.6965
▁dissolution	-11.6966
▁Insurance	-11.6967
▁hyper	-11.6968
▁responses	-11.6968
▁canceled	-11.6968
▁smallest	-11.6969
▁traces	-11.697
▁leased	-11.697
,”	-11.6972
▁Santo	-11.6975
ery	-11.6977
▁Burma	-11.6978
▁extant	-11.6978
tte	-11.6978
▁Twin	-11.6979
▁consecrated	-11.698
▁welcomed	-11.6983
acre	-11.6984
▁Bangkok	-11.6987
▁maiden	-11.6988
▁trap	-11.6991
▁Belarus	-11.6994
▁engaging	-11.6996
▁dining	-11.6996
▁automobile	-11.6996
▁sworn	-11.6996
▁cyclone	-11.6996
Men	-11.6997
ill	-11.6997
▁Pra	-11.7004
bal	-11.7005
▁voltage	-11.7005
tur	-11.7005
ili	-11.7006
nar	-11.7007
▁blow	-11.7007
▁saint	-11.7009
▁detention	-11.701
▁screenwriter	-11.701
▁mills	-11.7011
▁detective	-11.7011
▁rider	-11.7013
▁countryside	-11.7019
▁extraordinary	-11.7021
▁bombs	-11.7024
▁geometry	-11.7025
▁accessed	-11.7025
▁Seminary	-11.7025
▁objectives	-11.7026
▁consolidated	-11.7026
▁ignored	-11.7026
▁divine	-11.7026
▁interference	-11.7026
▁sandstone	-11.7026
▁Never	-11.7029
▁utilized	-11.7029
▁Karnataka	-11.703
▁commanders	-11.7031
▁harsh	-11.7031
▁Access	-11.7033
▁Lynch	-11.7034
▁Total	-11.7034
▁shed	-11.7035
▁myth	-11.7036
▁Link	-11.7036
court	-11.7039
▁Easter	-11.7039
▁AA	-11.7039
▁capability	-11.704
▁Klein	-11.704
▁Sacramento	-11.704
▁respected	-11.7041
▁organisms	-11.7042
▁Zimbabwe	-11.7043
▁Strait	-11.7043
▁archives	-11.7045
▁pipe	-11.7046
▁standings	-11.7046
power	-11.7047
▁mud	-11.7047
▁Swift	-11.7049
▁Deutsche	-11.7051
▁Mer	-11.7052
▁hostile	-11.7054
▁Observatory	-11.7054
▁acute	-11.7054
▁detect	-11.7055
▁realm	-11.7057
▁Louisville	-11.7059
▁sacrifice	-11.7059
▁investments	-11.706
▁Bin	-11.706
▁Beyond	-11.7061
▁keyboard	-11.7062
iv	-11.7064
▁lab	-11.7064
▁Creative	-11.7066
▁climbing	-11.7068
corporating	-11.7069
▁batted	-11.7069
▁buying	-11.707
LP	-11.7071
▁Adventures	-11.7072
▁Va	-11.7073
▁nights	-11.7076
▁seating	-11.7082
▁screening	-11.7083
▁Bengali	-11.7083
▁Emergency	-11.7083
▁securing	-11.7084
▁coordinator	-11.7084
▁Catalan	-11.7086
▁odd	-11.709
od	-11.7093
▁lighter	-11.7093
▁regain	-11.7094
▁spare	-11.7095
▁comparable	-11.7097
▁tasked	-11.7099
▁autonomy	-11.7099
▁inception	-11.7099
▁sank	-11.71
▁couldn	-11.7103
elli	-11.7104
▁ha	-11.7104
▁moon	-11.7109
▁walked	-11.7111
▁Inspector	-11.7112
▁Cerambycidae	-11.7114
▁ideology	-11.7114
▁realizes	-11.7114
▁Given	-11.7117
py	-11.7118
▁professionally	-11.7121
▁Border	-11.7124
▁disputes	-11.7125
▁providers	-11.7133
▁Tam	-11.7134
▁addresses	-11.7136
▁Sebastian	-11.7137
▁cultivation	-11.7137
▁fin	-11.7138
▁heating	-11.714
▁Paper	-11.7142
▁sovereignty	-11.7144
lee	-11.7144
▁portfolio	-11.7146
▁Gal	-11.7149
▁Kerry	-11.7149
▁Greatest	-11.715
▁Fight	-11.7151
▁Poetry	-11.7154
ret	-11.7156
▁Willie	-11.7156
▁monuments	-11.7157
▁honours	-11.7158
▁Augustus	-11.7158
▁Cash	-11.7158
▁Dynasty	-11.7158
▁Thomson	-11.7159
distance	-11.716
▁Appeals	-11.716
▁Wan	-11.7164
▁Folk	-11.717
▁designers	-11.7172
▁loyalty	-11.7174
▁livestock	-11.7175
running	-11.7181
▁gather	-11.7181
▁contributor	-11.7184
▁mixing	-11.7185
▁Sandy	-11.7187
▁Berry	-11.7188
series	-11.7188
az	-11.7192
▁celebrity	-11.7194
▁SH	-11.7194
▁marched	-11.7195
▁wheat	-11.72
list	-11.7201
▁profits	-11.7202
▁spelling	-11.7203
▁approaching	-11.7203
▁Ferry	-11.7204
mile	-11.7206
▁Hero	-11.7208
▁Scots	-11.7209
▁Aircraft	-11.7212
titled	-11.7213
ima	-11.7213
▁fake	-11.7215
CO	-11.7215
▁cartoon	-11.7217
▁Honours	-11.7218
▁alumni	-11.7219
▁Dictionary	-11.7219
▁Fantasy	-11.7221
▁slope	-11.7224
▁plantation	-11.7226
▁listening	-11.723
▁instances	-11.723
▁Dis	-11.7231
▁Adult	-11.7233
▁seeks	-11.7237
▁licence	-11.7237
▁Ferrari	-11.7238
▁breach	-11.7238
sta	-11.7239
▁ease	-11.7241
ising	-11.7249
▁Homer	-11.7251
▁surprised	-11.7254
▁Marsh	-11.7255
▁Plains	-11.7256
▁Whitney	-11.7259
▁Population	-11.7264
▁Moss	-11.7264
▁Arms	-11.7264
ali	-11.7265
▁searching	-11.7266
East	-11.7266
▁Level	-11.7268
▁loaned	-11.7268
▁Rica	-11.7269
▁wards	-11.7269
sburg	-11.7271
▁plaque	-11.7271
away	-11.7272
▁enzyme	-11.7274
▁Mari	-11.7275
▁irregular	-11.7276
▁Ernst	-11.7276
▁investigating	-11.7279
▁lanes	-11.7283
▁Stories	-11.7293
▁favored	-11.7294
▁Deputies	-11.7294
▁risks	-11.7294
▁Fat	-11.7295
▁trustees	-11.7295
▁celebrations	-11.7296
▁AP	-11.7297
▁dish	-11.73
▁sixty	-11.7301
▁Macedonia	-11.7304
▁Ry	-11.7305
▁Boris	-11.7308
▁employer	-11.7309
▁Joel	-11.7311
▁Maj	-11.7312
▁hanging	-11.7313
▁happens	-11.7317
kha	-11.7318
stage	-11.7318
▁deity	-11.7318
▁mentor	-11.7321
▁trim	-11.7322
▁progressed	-11.7323
▁Kenny	-11.7323
▁Shield	-11.7323
via	-11.7324
▁Things	-11.7324
▁Statistical	-11.7324
▁drag	-11.7325
://	-11.7325
▁applying	-11.7326
▁abandon	-11.7328
▁console	-11.7329
hara	-11.7329
▁Index	-11.7331
▁contents	-11.7332
▁te	-11.7333
▁Charter	-11.7334
▁contrary	-11.7336
▁retaining	-11.7336
▁shortened	-11.7341
▁Zero	-11.7342
▁Screen	-11.7343
▁Honorary	-11.7354
▁SA	-11.7356
lay	-11.7357
▁Rao	-11.7359
▁Mohammad	-11.7362
▁Minneapolis	-11.7363
hr	-11.7364
▁bombers	-11.7367
▁align	-11.7369
▁Hannah	-11.737
▁Joshua	-11.737
▁placement	-11.737
▁settling	-11.7371
sley	-11.7371
▁strongest	-11.7372
▁Gerald	-11.7373
▁quarterfinals	-11.7376
▁advisory	-11.7376
▁routine	-11.7377
▁fires	-11.7381
▁Rotten	-11.7383
six	-11.7385
▁discharge	-11.7386
▁evident	-11.7387
inger	-11.7387
▁Past	-11.7391
▁railways	-11.7391
▁measurements	-11.7391
uma	-11.7392
▁Suffolk	-11.7392
▁cruiser	-11.7394
▁stick	-11.7396
▁demanding	-11.7397
▁ear	-11.7398
▁collision	-11.7399
▁Initiative	-11.7401
▁ghost	-11.7403
▁bag	-11.7405
▁competitor	-11.7407
▁conquered	-11.7407
▁dean	-11.7408
▁podcast	-11.7408
▁stems	-11.7409
▁Reich	-11.7413
▁Luther	-11.7414
▁Europa	-11.7415
lam	-11.7416
▁celebrities	-11.7416
▁Marathon	-11.7416
▁combine	-11.7416
ema	-11.7417
▁identifying	-11.7419
▁hide	-11.7419
▁complexity	-11.742
▁scorer	-11.7422
▁bike	-11.7425
▁Discovery	-11.7425
aya	-11.7426
ical	-11.7426
▁lecture	-11.7428
▁strange	-11.7429
▁Consequently	-11.7431
▁Maharashtra	-11.7431
▁doctoral	-11.7432
▁Dee	-11.7432
▁heroes	-11.7434
▁MC	-11.7435
▁gray	-11.7438
▁Dun	-11.7442
▁loaded	-11.7445
ets	-11.7446
▁penalties	-11.7447
met	-11.7454
▁Excellence	-11.7456
▁miners	-11.7457
▁chassis	-11.7457
dam	-11.746
peaking	-11.746
▁reward	-11.7461
▁Current	-11.7461
▁Newfoundland	-11.7462
▁Gandhi	-11.7462
▁División	-11.7462
▁Ferguson	-11.7462
▁analog	-11.7464
▁annexed	-11.7464
▁traced	-11.7466
▁comeback	-11.7466
▁advocacy	-11.7468
▁Electronic	-11.747
▁silk	-11.7471
▁boxes	-11.7472
▁Janet	-11.7473
▁termed	-11.7474
▁lit	-11.7474
▁accredited	-11.7474
▁Smart	-11.7477
▁appealed	-11.7477
▁Partners	-11.7477
▁affecting	-11.7477
▁demolition	-11.7478
▁angry	-11.7478
▁server	-11.7479
▁Ros	-11.748
▁rings	-11.7482
▁Tales	-11.7482
▁gravity	-11.7483
▁unanimous	-11.7488
▁Czechoslovakia	-11.749
▁UNESCO	-11.7493
▁ultimate	-11.7493
▁armor	-11.7497
▁Concert	-11.7498
▁reversed	-11.75
▁Highland	-11.7501
▁Ker	-11.7503
▁Ak	-11.7504
ito	-11.7504
sis	-11.7504
▁advances	-11.7506
hua	-11.7508
▁Chemical	-11.7509
▁tram	-11.751
▁Kill	-11.7512
So	-11.7512
▁Tunnel	-11.7514
▁damages	-11.7514
▁stance	-11.7516
▁ATP	-11.7517
▁Felix	-11.7517
▁Northeast	-11.7518
▁combining	-11.7524
▁Empress	-11.7524
John	-11.7526
ori	-11.7529
▁Tank	-11.753
▁None	-11.7531
▁corridor	-11.7532
▁Cumberland	-11.7532
▁complaint	-11.7533
▁bowling	-11.7533
▁suffer	-11.7535
▁unofficial	-11.7536
▁excessive	-11.7536
▁diagnosis	-11.7538
▁Claire	-11.7539
▁missionaries	-11.754
▁Dubai	-11.754
▁decoration	-11.7542
▁lengthy	-11.7543
▁MW	-11.7544
▁submit	-11.7546
▁trafficking	-11.7546
ole	-11.7547
▁sitcom	-11.7548
▁suggestion	-11.7548
▁informal	-11.755
very	-11.755
▁radius	-11.7551
▁grammar	-11.7552
▁Had	-11.7553
▁enhance	-11.7555
▁Clare	-11.7557
▁busy	-11.756
▁Derek	-11.756
▁Beth	-11.7563
▁Kazakhstan	-11.7565
pen	-11.7567
▁Victory	-11.757
▁anywhere	-11.7575
▁chronic	-11.7578
▁bicycle	-11.7579
▁Dawn	-11.7583
oma	-11.7584
▁Basel	-11.7584
▁wage	-11.7584
della	-11.7585
▁applies	-11.7586
▁Singer	-11.7587
▁Directors	-11.7587
▁speeds	-11.7588
▁sizes	-11.7588
▁Estonian	-11.759
▁Kang	-11.759
▁statues	-11.7592
▁Uruguay	-11.7592
▁Malay	-11.7593
▁Lima	-11.7597
▁Canberra	-11.7602
▁expenses	-11.7602
Day	-11.7603
▁stopping	-11.7603
▁valued	-11.7604
▁flank	-11.7607
▁collegiate	-11.7607
▁kicked	-11.7609
▁Wen	-11.761
▁councillor	-11.7611
▁Jeffrey	-11.7611
▁boxer	-11.7612
▁Mali	-11.7612
▁Bend	-11.7613
▁Ladies	-11.7617
▁crystal	-11.7617
▁Mathematics	-11.7624
▁Georg	-11.7624
▁Cap	-11.7624
▁encounters	-11.7626
▁diamond	-11.7627
▁carriers	-11.7629
▁palm	-11.7631
▁Via	-11.7631
third	-11.7632
▁Treasury	-11.7633
▁melody	-11.7633
▁Democracy	-11.7633
▁Tanzania	-11.7635
▁develops	-11.7635
▁sacked	-11.7636
ash	-11.7644
▁upgrade	-11.7645
▁Wonder	-11.7646
▁prints	-11.7647
▁porch	-11.7647
▁Era	-11.7648
▁prolific	-11.7649
▁demonstrations	-11.7651
▁Sai	-11.7652
wal	-11.7655
▁Adventure	-11.7655
▁substantially	-11.7656
▁memoir	-11.7659
▁Ultimate	-11.766
▁translations	-11.7663
ob	-11.7665
ras	-11.7667
▁formats	-11.7669
▁twelfth	-11.7671
▁incorporate	-11.7674
▁Ren	-11.768
▁qualities	-11.768
human	-11.7681
▁Norton	-11.7681
▁Vernon	-11.7682
▁attained	-11.7683
▁folded	-11.7683
▁Jorge	-11.7684
▁legitimate	-11.7684
sometimes	-11.7684
▁Stefan	-11.7688
▁modest	-11.7692
▁Syracuse	-11.7696
▁Software	-11.7696
lands	-11.7703
▁viral	-11.7706
▁protocol	-11.7706
▁Outside	-11.7708
▁undergo	-11.771
▁quantity	-11.7712
mat	-11.7717
▁Georgetown	-11.7718
▁Eva	-11.7718
▁ca	-11.7719
▁Sharp	-11.7719
ben	-11.7723
▁Midland	-11.7725
▁mouse	-11.7726
▁Know	-11.7728
▁spacecraft	-11.7728
rus	-11.7729
▁fat	-11.7731
▁gifts	-11.7732
Black	-11.7733
▁flowing	-11.7735
▁Kyiv	-11.7736
▁boyfriend	-11.7736
die	-11.7738
▁Meyer	-11.7739
hat	-11.7742
kal	-11.7743
▁evacuated	-11.7745
aw	-11.7746
▁launching	-11.7747
▁Solar	-11.7751
▁councillors	-11.7751
▁Salem	-11.7751
▁Maya	-11.7752
▁differs	-11.7752
▁lacking	-11.7754
▁swept	-11.7755
▁landscapes	-11.7757
▁Weather	-11.7761
▁Dor	-11.7762
▁Carson	-11.7764
▁Sometimes	-11.7767
▁mate	-11.7767
▁delegate	-11.7768
▁lung	-11.7769
▁Wings	-11.777
▁archive	-11.7771
▁complained	-11.7776
▁whatever	-11.7777
▁Large	-11.7778
▁Uttar	-11.7779
▁Visual	-11.778
▁defines	-11.7781
▁torture	-11.7784
▁feared	-11.7786
▁traits	-11.7786
▁Nuclear	-11.7787
uli	-11.7789
▁woodland	-11.7789
▁aunt	-11.7789
▁Dom	-11.7791
▁cuisine	-11.7791
▁limitations	-11.7795
size	-11.7796
largest	-11.78
note	-11.7801
▁Belt	-11.7804
▁spreading	-11.7806
▁trunk	-11.7806
▁Americas	-11.7807
▁abbey	-11.7807
▁Floyd	-11.7807
▁Duchy	-11.7808
og	-11.7808
ase	-11.7809
▁García	-11.7812
▁eleventh	-11.7819
▁abundant	-11.7821
dong	-11.7823
▁Lamb	-11.7827
▁tract	-11.7828
▁organs	-11.7829
▁Mile	-11.7829
Connor	-11.7831
▁submarines	-11.7831
▁availability	-11.7834
▁occupy	-11.7837
▁consulting	-11.7842
▁Associated	-11.7843
▁wartime	-11.7849
▁republic	-11.7849
▁Wade	-11.785
▁banner	-11.7852
▁electronics	-11.7854
▁cloth	-11.7854
▁Below	-11.7856
▁editors	-11.7857
▁Worth	-11.7857
color	-11.7857
▁jumping	-11.7858
▁Laws	-11.7863
▁oval	-11.7864
▁Downtown	-11.7864
▁Sanskrit	-11.7867
▁hoping	-11.7867
▁crater	-11.7867
▁anger	-11.7868
▁Met	-11.7871
▁pursuing	-11.7871
▁seasonal	-11.7875
▁Tucker	-11.7876
▁Carey	-11.7879
bay	-11.7882
▁contestant	-11.7884
▁beside	-11.7886
▁formations	-11.789
▁Arch	-11.7892
▁warrant	-11.7892
▁precise	-11.7893
USA	-11.7893
▁Ras	-11.7895
▁mistake	-11.7896
base	-11.7899
▁tonnes	-11.79
▁enormous	-11.7901
▁convent	-11.7903
▁symbolic	-11.7908
▁wages	-11.7912
▁Climate	-11.7912
▁Letters	-11.7912
ose	-11.7913
▁RNA	-11.7917
▁CBC	-11.7919
▁cooling	-11.7919
▁owing	-11.792
▁migrated	-11.7922
▁fails	-11.7922
▁Conrad	-11.7924
xi	-11.7926
▁regulatory	-11.7928
▁Benedict	-11.7929
woman	-11.7931
▁commentator	-11.7932
▁dedication	-11.7933
zan	-11.7934
▁repeat	-11.7936
▁choosing	-11.7936
▁Colombian	-11.7937
▁posthumously	-11.7937
▁councils	-11.7939
▁Chin	-11.7941
▁Conservatives	-11.7943
country	-11.7945
▁technological	-11.7946
established	-11.7947
▁Bat	-11.7949
▁teenager	-11.795
▁sentences	-11.7951
▁immune	-11.7952
▁Android	-11.7952
▁factions	-11.7953
▁sovereign	-11.7953
▁Rafael	-11.7956
▁tends	-11.7959
▁Election	-11.7959
▁floating	-11.796
▁exercises	-11.7961
▁Roma	-11.7963
wo	-11.7964
▁counsel	-11.7964
▁Darwin	-11.7966
▁everyday	-11.7967
▁bomber	-11.7968
▁integrity	-11.7968
▁disability	-11.7968
▁Michelle	-11.7969
▁remnants	-11.797
▁Bolton	-11.797
▁Ran	-11.797
▁Bai	-11.7971
▁constituted	-11.7972
▁sprint	-11.7973
▁possess	-11.7974
mounted	-11.7978
▁paths	-11.798
▁finishes	-11.798
▁textile	-11.7982
▁strengthen	-11.7984
▁keen	-11.7986
▁wounds	-11.7986
▁LLC	-11.7991
▁phases	-11.7992
esh	-11.7993
▁blame	-11.7997
offs	-11.7998
▁Tele	-11.7999
▁update	-11.8
▁raced	-11.8002
▁toxic	-11.8002
▁Au	-11.801
▁Lan	-11.8011
▁Telugu	-11.8012
▁Adolf	-11.8014
▁hurt	-11.8015
▁Heat	-11.8015
▁Mus	-11.8016
▁Sicily	-11.8017
▁Gibraltar	-11.8021
▁accepting	-11.8022
▁cylinder	-11.8023
▁anonymous	-11.8023
UK	-11.803
▁systematic	-11.8032
vis	-11.8032
▁Wimbledon	-11.8033
▁Norwich	-11.8033
▁precipitation	-11.8033
▁enclosed	-11.8034
▁mammals	-11.8035
▁Madras	-11.8038
▁Boat	-11.8039
Ha	-11.804
▁Worcester	-11.8042
▁Rule	-11.8045
ches	-11.8045
▁MPs	-11.8045
▁clergy	-11.8047
▁trainer	-11.8048
▁contacts	-11.805
▁brass	-11.8051
▁sketch	-11.8053
▁airfield	-11.8053
▁descendant	-11.8053
▁parameters	-11.8054
▁Bur	-11.8055
▁shells	-11.8055
▁Rebecca	-11.8058
una	-11.8058
▁Venezuelan	-11.8059
▁highlight	-11.806
▁Pasha	-11.8062
▁vol	-11.8063
▁schemes	-11.8063
▁Appeal	-11.8064
▁tornado	-11.8064
▁subdivision	-11.8064
▁Editor	-11.8065
▁dissertation	-11.8066
▁Percy	-11.8067
▁exceptional	-11.8067
▁teamed	-11.8069
▁Educational	-11.8069
▁indie	-11.8072
▁Lok	-11.8073
▁seventeen	-11.8074
▁percussion	-11.8076
▁Finn	-11.8076
fire	-11.8077
▁isolation	-11.8082
▁weakened	-11.8084
▁curved	-11.8084
▁Guatemala	-11.8086
▁Coleman	-11.8086
▁rushed	-11.8087
▁tender	-11.8087
▁Fighting	-11.8091
▁Bud	-11.8092
▁Geo	-11.8092
boat	-11.8093
▁Leone	-11.8095
▁Alexandra	-11.8096
ec	-11.8096
▁discussing	-11.8096
▁Hyde	-11.8098
log	-11.8099
▁voluntary	-11.8101
▁Noble	-11.8101
▁Zu	-11.8102
▁Zen	-11.8103
▁corporations	-11.8107
▁Zhu	-11.8107
▁default	-11.8108
jin	-11.8108
▁Bruno	-11.8108
▁watershed	-11.8111
generation	-11.8112
▁publishers	-11.8113
▁Come	-11.8113
ele	-11.8115
▁rocky	-11.8115
▁pageant	-11.8115
▁crews	-11.8116
▁sometime	-11.8117
▁Casey	-11.8121
door	-11.8122
▁cheese	-11.8125
▁succeeding	-11.8125
▁dis	-11.8126
▁Yet	-11.8129
▁supposedly	-11.8129
▁Kashmir	-11.813
▁Single	-11.8132
▁Lam	-11.8137
cus	-11.8139
▁Sul	-11.8141
wheel	-11.8141
▁proceed	-11.8143
▁wrestlers	-11.8143
▁Made	-11.8143
oid	-11.8145
▁Betty	-11.8146
▁Crisis	-11.8146
▁Animal	-11.8147
▁declaring	-11.8148
▁fatal	-11.8149
▁classroom	-11.8149
▁displaced	-11.815
▁overtime	-11.8151
▁emphasized	-11.8151
▁Afghan	-11.8151
▁Tibetan	-11.8152
▁Multi	-11.8155
▁Evening	-11.8157
▁Aero	-11.816
▁Alternative	-11.8161
▁Oz	-11.8164
▁hiatus	-11.8165
mas	-11.8165
row	-11.8166
▁Dixon	-11.8167
ico	-11.817
▁destroyer	-11.8171
feld	-11.8171
▁ISO	-11.8172
▁terrestrial	-11.8174
▁receptor	-11.8176
▁Plain	-11.8178
▁locked	-11.818
▁Philharmonic	-11.8181
▁Garcia	-11.8181
▁encompasses	-11.8182
▁realize	-11.8182
▁Gur	-11.8184
▁Table	-11.8185
▁Sid	-11.8186
▁Cre	-11.8186
▁expectations	-11.8187
▁aided	-11.8188
▁hunt	-11.819
▁sphere	-11.8191
▁Ter	-11.8192
▁equations	-11.8193
▁dialects	-11.8193
▁Kh	-11.8195
Car	-11.8196
▁inning	-11.8198
▁debris	-11.8198
▁charitable	-11.8198
▁Frances	-11.8198
▁breakdown	-11.8199
▁Roberto	-11.8201
▁Hat	-11.8201
▁Northwestern	-11.8201
lla	-11.8204
▁scholarly	-11.8206
▁Lebanese	-11.8211
▁Civic	-11.8212
hole	-11.8212
since	-11.8213
▁clause	-11.8215
▁posting	-11.8215
▁adequate	-11.8218
▁feud	-11.8219
▁shadow	-11.8219
▁ceremonial	-11.8221
▁Francesco	-11.8221
▁reasonable	-11.8221
▁canon	-11.8222
▁tensions	-11.8222
National	-11.8224
▁Chennai	-11.8225
▁Truth	-11.8225
▁tactical	-11.8227
▁resemble	-11.8228
pu	-11.8229
▁Led	-11.8229
▁preference	-11.8231
▁Innovation	-11.8231
▁speculation	-11.8231
▁Pier	-11.8235
Fi	-11.8237
▁email	-11.8239
▁gains	-11.8241
▁AI	-11.8241
▁Tuesday	-11.8245
▁Toledo	-11.8248
▁detained	-11.8249
named	-11.825
tech	-11.8253
fiction	-11.8259
shin	-11.826
▁Embassy	-11.8265
▁nevertheless	-11.8265
▁sophomore	-11.8265
▁Riley	-11.8265
▁shipped	-11.8265
thi	-11.8267
▁highlights	-11.8268
▁nonprofit	-11.827
▁contacted	-11.8271
▁Sing	-11.8272
▁shirt	-11.8272
▁frames	-11.8272
▁Cecil	-11.8274
▁geographic	-11.8278
song	-11.8281
▁Lisbon	-11.8281
▁Cedar	-11.8281
▁Electoral	-11.8282
▁reformed	-11.8283
▁Sho	-11.8284
ale	-11.8284
▁UCLA	-11.8285
▁pump	-11.8285
▁sexually	-11.8288
▁coupled	-11.829
▁surveys	-11.8292
▁Flash	-11.8294
▁regulated	-11.8295
▁purchasing	-11.8298
▁Gaza	-11.8305
▁Name	-11.8305
▁Sheikh	-11.8306
▁Eleanor	-11.8306
▁Roth	-11.8307
eb	-11.8309
▁Bolivia	-11.831
▁stripped	-11.831
▁Latvia	-11.831
▁freely	-11.8311
▁deer	-11.8312
▁reflecting	-11.8313
▁Corp	-11.8314
▁modifications	-11.8314
▁dairy	-11.8315
▁Winchester	-11.8315
▁erosion	-11.8315
▁Sidney	-11.8315
▁expertise	-11.8315
▁Rather	-11.8317
▁Huang	-11.8319
▁Ng	-11.832
▁asteroid	-11.8323
▁counterpart	-11.8325
act	-11.8326
▁ethics	-11.8331
▁Chapman	-11.8332
▁consequently	-11.8332
▁beaches	-11.8337
controlled	-11.834
▁tough	-11.8342
▁outcomes	-11.8343
▁tracking	-11.8344
ovsky	-11.8345
hall	-11.8347
▁Canton	-11.8348
▁graduates	-11.8348
▁comfortable	-11.8349
▁nerve	-11.835
arm	-11.8351
site	-11.8352
▁postseason	-11.8353
para	-11.8353
▁encouraging	-11.8353
▁teenage	-11.8355
▁collectively	-11.8356
▁Flower	-11.8359
driven	-11.8359
▁Bir	-11.8362
▁Superman	-11.8363
▁Drew	-11.8364
▁incomplete	-11.8365
▁Fields	-11.8369
▁tongue	-11.8369
▁Powers	-11.8369
ati	-11.837
▁App	-11.8373
▁Baden	-11.8377
profile	-11.8378
▁Caesar	-11.8378
eo	-11.8378
ors	-11.8381
▁miss	-11.8384
▁fitness	-11.8384
▁Coal	-11.8384
▁effectiveness	-11.8385
▁collaborative	-11.8386
lecommunications	-11.8389
▁rehabilitation	-11.8389
▁monarch	-11.8391
▁alphabet	-11.8397
▁canton	-11.8397
▁exploring	-11.8399
nica	-11.8399
▁liberation	-11.84
▁lots	-11.8403
▁clinic	-11.8403
▁Dragons	-11.8406
along	-11.8411
▁Cologne	-11.8411
▁Jenkins	-11.8411
rated	-11.8413
▁arcade	-11.8415
▁declining	-11.8416
▁breakthrough	-11.8416
▁carriage	-11.8418
Ka	-11.842
▁coined	-11.8422
▁Jackie	-11.8423
▁specially	-11.8424
its	-11.8425
▁safely	-11.8425
▁Publishers	-11.8425
▁thoughts	-11.8426
▁Fiji	-11.8427
▁ballad	-11.8428
etta	-11.8429
▁publicity	-11.8432
▁evacuation	-11.8433
▁Valencia	-11.8434
eau	-11.8436
dom	-11.8438
▁Churches	-11.844
▁Howe	-11.844
▁atomic	-11.8442
▁Stalin	-11.8442
▁Sanders	-11.8445
▁talented	-11.8446
▁burn	-11.8446
▁Middlesex	-11.8447
▁Ship	-11.8447
▁pocket	-11.8448
▁resolve	-11.8449
▁quantities	-11.845
▁sanctuary	-11.845
▁Ara	-11.845
▁linking	-11.845
▁teammates	-11.845
▁Sim	-11.8453
▁catalogue	-11.8456
▁prizes	-11.8457
▁flash	-11.8458
▁Fur	-11.8463
▁Wai	-11.8465
▁pin	-11.8466
▁torn	-11.8466
▁Tomatoes	-11.8467
▁resembles	-11.8467
▁ecclesiastical	-11.8468
▁religions	-11.847
▁amended	-11.847
eck	-11.8471
▁Genesis	-11.8472
▁expired	-11.8474
iva	-11.8474
▁Atlas	-11.8475
▁Cy	-11.8476
▁Battery	-11.8477
▁CR	-11.8477
▁NC	-11.8478
▁Phase	-11.8479
▁shaft	-11.848
▁shoots	-11.8485
ue	-11.8485
hai	-11.8485
▁prose	-11.8486
▁skilled	-11.8486
▁woods	-11.8489
▁López	-11.8492
space	-11.8493
nine	-11.8496
▁humid	-11.8499
▁insufficient	-11.8499
green	-11.85
▁Heavy	-11.8501
▁praising	-11.8501
▁Agnes	-11.8504
▁Helsinki	-11.8508
▁continuation	-11.8508
▁Ste	-11.8509
▁financing	-11.8509
▁paired	-11.8509
▁Hawaiian	-11.851
▁Papua	-11.8512
▁Impact	-11.8512
▁CF	-11.8514
▁Talk	-11.8515
night	-11.8515
storey	-11.8518
▁lane	-11.852
▁asserted	-11.852
▁Shan	-11.852
▁Monica	-11.8521
▁attributes	-11.8521
gon	-11.8524
▁donation	-11.8524
▁Raiders	-11.8526
▁Cher	-11.8528
▁motivated	-11.853
▁barn	-11.853
ija	-11.8534
▁Loch	-11.8535
▁shrub	-11.8536
▁ambitious	-11.8536
▁Parade	-11.8536
▁imagery	-11.8538
▁flies	-11.854
▁columnist	-11.8541
▁Sant	-11.8543
▁Shop	-11.8543
▁Fo	-11.8545
▁Face	-11.8545
▁diploma	-11.8546
▁Slavic	-11.855
▁violations	-11.8551
▁employ	-11.8551
▁tended	-11.8552
▁implies	-11.8553
▁Hermann	-11.8555
▁Kol	-11.8556
▁powder	-11.8559
▁Helena	-11.856
bre	-11.8562
▁facts	-11.8562
▁subjected	-11.8564
▁Phi	-11.8564
▁Denis	-11.8565
▁filter	-11.8567
▁soils	-11.8567
▁threatening	-11.8569
▁Variety	-11.857
▁Collegiate	-11.857
▁fever	-11.857
▁Glacier	-11.8571
▁Morton	-11.8572
▁Lambert	-11.8574
▁Os	-11.8574
▁Mohammed	-11.8575
▁Ave	-11.8575
▁Make	-11.8578
▁innocent	-11.8579
▁reflection	-11.858
▁striker	-11.8581
▁Credit	-11.8582
▁Neu	-11.8584
▁defunct	-11.8585
▁rush	-11.8585
▁Torres	-11.8585
▁pension	-11.8587
▁ore	-11.8589
▁Yard	-11.859
▁teaches	-11.8591
▁financially	-11.8597
▁combines	-11.8598
▁plasma	-11.8599
▁masses	-11.8601
▁Aviv	-11.8601
▁erect	-11.8601
million	-11.8604
▁González	-11.8604
▁Exeter	-11.8604
▁Barrett	-11.8605
channel	-11.8605
▁computing	-11.8608
▁Wo	-11.861
▁finest	-11.8613
▁decisive	-11.8613
▁resides	-11.8615
▁smart	-11.8616
▁totally	-11.8616
▁Engineer	-11.8617
▁Guru	-11.8618
aba	-11.8619
ub	-11.8619
▁Motion	-11.8619
▁Hassan	-11.8622
▁Leadership	-11.8622
kel	-11.8624
▁Word	-11.8626
▁recommendation	-11.8627
▁Titans	-11.8629
▁Braves	-11.863
▁colored	-11.8632
▁Turks	-11.8635
▁Linux	-11.8635
▁Unfortunately	-11.8636
owski	-11.8637
oc	-11.8639
▁guitars	-11.8639
ire	-11.864
▁knife	-11.864
Russian	-11.8642
▁positioned	-11.8647
▁binary	-11.8647
▁Chemistry	-11.8648
▁Fast	-11.8649
▁juvenile	-11.8649
▁GP	-11.8651
▁Match	-11.8654
▁Roland	-11.8655
▁Lim	-11.8656
▁persecution	-11.8656
▁irrigation	-11.8656
▁Yemen	-11.8656
▁IT	-11.8656
▁Holt	-11.8657
gas	-11.8659
▁AG	-11.8661
%).	-11.8663
▁Tourism	-11.8663
▁Physical	-11.8664
▁Bee	-11.8665
aj	-11.8666
▁Sutton	-11.8666
▁medalist	-11.8667
▁tales	-11.8667
▁dock	-11.8668
dra	-11.8668
▁AIDS	-11.8671
▁bays	-11.8671
▁Clyde	-11.8674
▁Vision	-11.8676
▁Ski	-11.8676
▁homeless	-11.8677
hy	-11.8679
▁announcing	-11.8683
▁IX	-11.8683
▁employers	-11.8687
▁Communication	-11.8691
▁Gardner	-11.8691
▁negotiate	-11.8695
listed	-11.8695
▁Cove	-11.8696
▁sailors	-11.8696
▁determining	-11.8697
▁acids	-11.8698
▁Wong	-11.8699
ín	-11.8699
▁Oriental	-11.8699
▁pioneering	-11.8705
▁Senators	-11.8705
▁Negro	-11.8705
▁sleeping	-11.8706
▁instructed	-11.8709
▁riots	-11.871
▁spy	-11.8711
▁negotiated	-11.8712
▁doubled	-11.8713
ux	-11.8715
▁Rex	-11.8715
▁Religious	-11.8718
▁PGA	-11.8718
▁inmates	-11.8719
▁addressing	-11.8723
▁Category	-11.8724
ava	-11.8725
ensuring	-11.8726
▁Sergeant	-11.8726
tone	-11.8726
▁Sacred	-11.8729
body	-11.8729
ão	-11.873
▁Investment	-11.8732
hurst	-11.8732
▁Pablo	-11.8733
▁reli	-11.8734
modern	-11.8735
▁Xiao	-11.8736
SP	-11.8738
ep	-11.8738
▁trademark	-11.874
▁Jessica	-11.8743
▁guarantee	-11.8744
▁deeper	-11.8745
▁Hearts	-11.8745
▁darker	-11.8746
▁choices	-11.8746
▁Jacksonville	-11.8748
▁filling	-11.875
vy	-11.8751
▁Toward	-11.8753
▁Tara	-11.8754
▁Gor	-11.8756
▁Zo	-11.8758
hard	-11.8761
▁!!	-11.8761
even	-11.8764
▁wireless	-11.8765
▁h	-11.8765
government	-11.8765
▁Happy	-11.8766
▁Por	-11.8766
ative	-11.8767
▁ancestor	-11.8768
▁Baba	-11.8778
▁Bermuda	-11.8779
▁wanting	-11.8781
▁fortified	-11.8781
▁Body	-11.8781
▁Almost	-11.8783
▁Erik	-11.8786
▁Hammer	-11.8789
▁carefully	-11.8792
▁Elder	-11.8792
▁Dana	-11.8796
▁Timothy	-11.8796
▁highways	-11.8799
▁paved	-11.88
▁Tax	-11.8802
▁Rap	-11.8803
▁Plus	-11.8803
▁electro	-11.8803
▁valleys	-11.8804
▁cannon	-11.8806
Lo	-11.8807
▁generating	-11.8808
▁composite	-11.8808
▁optional	-11.881
▁uniforms	-11.881
▁facto	-11.881
▁Rudolf	-11.8814
▁Warwick	-11.8818
North	-11.8819
▁abundance	-11.8822
▁Afterwards	-11.8823
▁Maxwell	-11.883
▁Mara	-11.883
▁campaigned	-11.8832
though	-11.8838
▁shapes	-11.8841
▁advantages	-11.8841
▁reside	-11.8845
▁Have	-11.8849
▁trauma	-11.8849
▁nervous	-11.8849
▁ecological	-11.8851
▁Politics	-11.8851
▁Comic	-11.8852
▁Eden	-11.8855
▁sin	-11.8855
ridge	-11.8857
▁submission	-11.8857
ks	-11.8859
▁Casa	-11.8859
▁Bucharest	-11.8859
▁Shane	-11.8861
▁ingredients	-11.8863
King	-11.8865
kai	-11.8867
put	-11.8867
▁tendency	-11.8867
▁testified	-11.8868
▁borrowed	-11.8868
▁Peruvian	-11.8868
▁sketches	-11.8869
▁Hawks	-11.887
▁boost	-11.8874
▁Mt	-11.8874
▁Kon	-11.8875
Red	-11.8876
▁institutional	-11.8876
▁switching	-11.8877
▁Underground	-11.8878
pt	-11.8883
▁explosive	-11.8885
▁outskirts	-11.8885
▁transmitted	-11.8885
▁se	-11.8887
▁atop	-11.8888
tas	-11.8888
▁Cam	-11.8888
▁loosely	-11.8888
▁HBO	-11.8888
ante	-11.8889
▁Bundesliga	-11.889
▁Sei	-11.8893
▁rituals	-11.8893
Mar	-11.8894
Ba	-11.8895
city	-11.8896
▁intelligent	-11.8899
▁Sue	-11.89
▁inventor	-11.8901
▁adventures	-11.8902
▁infected	-11.8903
▁Volunteer	-11.8906
being	-11.8906
▁Cubs	-11.8906
▁pupil	-11.8906
▁battlefield	-11.8909
▁Mirror	-11.8909
▁Nazis	-11.891
▁Steam	-11.891
▁Antarctica	-11.891
▁Jesuit	-11.8911
▁Pur	-11.8913
▁Eli	-11.8914
▁compatible	-11.8914
▁Wave	-11.8915
black	-11.8915
▁Philippe	-11.8919
▁gastropod	-11.8921
▁Viscount	-11.8921
▁Albion	-11.8921
▁Lauren	-11.8921
▁teachings	-11.8925
table	-11.8927
▁Reverend	-11.8927
▁patch	-11.8927
▁cooperative	-11.8928
▁triangle	-11.8929
▁successes	-11.8929
▁humanitarian	-11.8929
▁besides	-11.8931
▁uncommon	-11.8932
▁tiny	-11.8933
▁parody	-11.8933
Let	-11.8933
▁loses	-11.8935
▁spanning	-11.8936
grade	-11.8937
Old	-11.8937
▁auxiliary	-11.8938
▁galleries	-11.8938
▁cancellation	-11.8938
▁Dur	-11.8939
▁minorities	-11.8939
▁Randy	-11.894
▁dozens	-11.894
▁prevention	-11.8941
eight	-11.8941
▁guaranteed	-11.8942
Ra	-11.8943
▁generic	-11.8946
▁Ashley	-11.8952
▁listen	-11.8952
▁Nat	-11.8953
▁Baghdad	-11.8954
▁Gates	-11.8955
▁comparing	-11.8956
▁ensuing	-11.8956
▁readily	-11.8956
▁magical	-11.8957
▁distances	-11.8957
▁Kit	-11.8959
▁Nicolas	-11.8959
▁Ai	-11.896
▁accusations	-11.8961
▁princess	-11.8962
▁frontier	-11.8962
▁exceptions	-11.8963
▁RBI	-11.8964
▁Sharon	-11.8964
▁Vatican	-11.8965
lik	-11.8965
▁anticipated	-11.8966
▁harbor	-11.8966
▁Alberto	-11.8967
▁Paramount	-11.8968
▁Sofia	-11.8969
▁Scouts	-11.8972
▁presumably	-11.8974
▁Plate	-11.8975
▁documentation	-11.8976
stock	-11.8976
▁CNN	-11.8976
▁dreams	-11.8978
▁Chambers	-11.8978
▁horn	-11.8982
▁Recreation	-11.8984
▁Historically	-11.8985
MS	-11.8986
▁PM	-11.8988
ped	-11.8988
▁creatures	-11.8991
▁emotions	-11.8991
▁Mix	-11.8992
▁superintendent	-11.8996
▁Lindsay	-11.8997
▁Allies	-11.8998
med	-11.9001
brown	-11.9001
oh	-11.9002
▁cyclist	-11.9002
▁Rican	-11.9007
▁coral	-11.9008
▁Sixth	-11.9008
▁Majesty	-11.901
▁marathon	-11.901
▁Cloud	-11.9011
▁personalities	-11.9011
▁brilliant	-11.9013
▁Gi	-11.9016
▁helicopters	-11.9019
▁economist	-11.9019
▁Arabian	-11.9022
great	-11.9022
ello	-11.9027
▁Mack	-11.9027
▁Hawk	-11.9027
▁Siege	-11.9028
▁scrapped	-11.9028
▁imaging	-11.9028
▁cease	-11.9029
▁pride	-11.9029
▁Mun	-11.903
▁dollar	-11.9031
operative	-11.9033
▁Davidson	-11.9036
▁Geoffrey	-11.9036
▁Trevor	-11.9038
▁Schedule	-11.9038
▁Pit	-11.904
▁surgical	-11.904
▁Abd	-11.904
aro	-11.9041
▁Ober	-11.9041
pet	-11.9043
▁Webster	-11.9043
▁Malayalam	-11.9043
▁Bergen	-11.9045
▁demonstrating	-11.9046
▁MHz	-11.9046
▁racism	-11.9047
▁Holdings	-11.9049
▁publishes	-11.9049
▁traders	-11.9051
▁deciding	-11.9057
▁Paralympics	-11.9058
▁pseudo	-11.9059
they	-11.906
▁explores	-11.9062
▁Dover	-11.9063
▁regards	-11.9064
▁linguistic	-11.9064
▁monk	-11.9064
▁eponymous	-11.9064
▁Hammond	-11.9065
▁Religion	-11.9067
▁swimmer	-11.9068
▁barracks	-11.9069
▁foster	-11.9073
▁Strong	-11.9074
President	-11.9074
▁thinks	-11.9077
pha	-11.9079
▁impacts	-11.9079
▁module	-11.908
iana	-11.9082
▁MVP	-11.9082
▁candidacy	-11.9082
▁Hartford	-11.9083
▁barely	-11.9085
jar	-11.9086
▁Constantine	-11.9087
▁Too	-11.909
▁reduces	-11.9092
▁chicken	-11.9092
▁tunnels	-11.9093
▁afford	-11.9095
itis	-11.9096
▁pseudonym	-11.9098
▁Med	-11.9098
vel	-11.9099
▁skating	-11.9101
▁metro	-11.9104
▁Hor	-11.9104
▁lined	-11.9105
▁celebrating	-11.9108
date	-11.911
▁snail	-11.9112
▁pathway	-11.9113
DC	-11.9113
often	-11.9113
▁emergence	-11.9114
▁Libya	-11.9114
▁Fa	-11.9115
▁Pay	-11.9116
ions	-11.9117
▁Sega	-11.9118
mis	-11.9119
▁transgender	-11.9119
author	-11.9119
▁mapping	-11.9119
▁Shri	-11.9119
▁cultivated	-11.912
▁Normandy	-11.912
▁Brandon	-11.9122
▁millions	-11.9123
avi	-11.9125
lying	-11.9126
real	-11.9129
▁rifles	-11.9129
▁feedback	-11.9131
▁villagers	-11.9131
beck	-11.9132
▁pretty	-11.9134
▁inheritance	-11.9137
▁Indoor	-11.9137
▁costumes	-11.9139
▁Boyd	-11.9141
▁observe	-11.9142
▁incorporates	-11.9145
park	-11.9145
▁Path	-11.9145
▁adviser	-11.9149
▁delivering	-11.915
▁Sy	-11.9154
▁competes	-11.9155
▁Madagascar	-11.9155
zel	-11.9156
▁synthetic	-11.9157
▁steering	-11.9157
boy	-11.9161
fan	-11.9161
And	-11.9161
è	-11.9162
▁Prairie	-11.9164
▁Strategic	-11.9164
tai	-11.9165
fold	-11.9165
▁Thirty	-11.9167
▁Foot	-11.9167
▁Vic	-11.9167
▁Johannes	-11.9168
wald	-11.9169
berry	-11.917
▁retains	-11.917
▁concludes	-11.9171
hit	-11.9172
▁Savage	-11.9172
▁Wal	-11.9172
▁averaging	-11.9173
▁embedded	-11.9173
Can	-11.9174
trick	-11.9175
▁cement	-11.9175
▁Gujarat	-11.9176
▁Brigadier	-11.918
bad	-11.918
San	-11.9181
aged	-11.9181
▁decay	-11.9181
▁courthouse	-11.9181
▁Maple	-11.9182
How	-11.9183
▁expect	-11.9186
▁im	-11.9186
▁amino	-11.9187
▁Koch	-11.9188
ties	-11.9188
▁vegetables	-11.9188
▁Internal	-11.9189
▁revenues	-11.9189
▁Lau	-11.919
▁Ek	-11.919
aq	-11.9191
▁acquiring	-11.9192
▁motto	-11.9192
▁Phillip	-11.9193
▁Rivers	-11.9194
▁Cowboys	-11.9194
fall	-11.9196
▁Augustine	-11.9198
▁finalist	-11.9198
▁Paradise	-11.9201
▁Stra	-11.9201
▁trick	-11.9201
▁eagle	-11.9205
▁Basque	-11.9205
▁puts	-11.9206
▁unaware	-11.9207
ami	-11.9207
▁Baroque	-11.9208
▁Kur	-11.9209
▁Montenegro	-11.921
▁wingspan	-11.9211
▁yearly	-11.9211
▁pleasure	-11.9212
▁Streets	-11.9213
▁Lead	-11.9213
▁Quinn	-11.9213
▁GM	-11.9216
▁Dev	-11.9216
▁Sally	-11.9217
gli	-11.9219
AD	-11.9219
▁holy	-11.9222
▁analyst	-11.9223
▁AT	-11.9224
▁Meeting	-11.9225
▁Patterson	-11.9227
▁identifies	-11.9228
mani	-11.9231
▁assessed	-11.9232
▁asset	-11.9233
▁Ranch	-11.9234
▁Fletcher	-11.9236
▁loves	-11.9241
▁virtue	-11.9241
▁Waterloo	-11.9243
▁Ang	-11.9243
▁tubes	-11.9244
▁Applied	-11.9247
▁steady	-11.9247
▁Duchess	-11.9247
▁Joyce	-11.9247
▁cord	-11.9248
▁rebranded	-11.9248
▁deliberately	-11.9248
▁Clayton	-11.9249
▁participant	-11.9249
Roman	-11.925
▁import	-11.9251
▁sealed	-11.9256
▁Christie	-11.9256
▁Pride	-11.9256
▁Patricia	-11.926
▁Sang	-11.9263
▁Mets	-11.9264
card	-11.9265
▁confluence	-11.9265
▁rector	-11.9267
▁Leigh	-11.9267
▁canvas	-11.9267
bee	-11.9269
▁depend	-11.9269
▁Heroes	-11.927
▁Benson	-11.927
▁scout	-11.9271
▁financed	-11.9272
▁Von	-11.9278
▁Inner	-11.9278
▁mathematician	-11.9278
▁corresponds	-11.928
▁Strange	-11.9283
▁Rad	-11.9283
▁epithet	-11.9284
▁harassment	-11.9284
uf	-11.9286
▁rejoined	-11.9286
▁Lil	-11.9287
▁Nordic	-11.9288
▁whereby	-11.929
wen	-11.929
▁pet	-11.9291
▁freed	-11.9295
▁affects	-11.9296
rio	-11.9296
fest	-11.9298
▁websites	-11.9298
▁Stand	-11.9299
▁Mick	-11.9299
▁dynamics	-11.93
▁survives	-11.9302
▁Bulls	-11.9305
▁bypass	-11.9305
▁protective	-11.9307
▁avoiding	-11.9307
▁geography	-11.9307
▁localities	-11.9308
▁Zagreb	-11.9308
▁Rising	-11.9309
cc	-11.931
▁Clarence	-11.9311
▁Thi	-11.9313
▁Afro	-11.9314
ably	-11.9317
OS	-11.9321
▁Barack	-11.9321
▁refusing	-11.9321
▁polls	-11.9321
▁MIT	-11.9323
▁masters	-11.9324
▁specializing	-11.9324
▁basal	-11.9327
nell	-11.9331
▁Very	-11.9332
▁locals	-11.9333
▁plural	-11.9335
▁trilogy	-11.934
▁Arlington	-11.934
ucci	-11.934
▁Pearson	-11.934
▁prevalent	-11.934
wer	-11.9341
▁matching	-11.9342
▁Calcutta	-11.9347
▁Hour	-11.9347
▁halls	-11.9349
▁unexpected	-11.9349
▁UCI	-11.9349
▁Jets	-11.9353
▁assumption	-11.9353
inae	-11.9353
▁Archive	-11.9354
▁counterparts	-11.9357
▁Said	-11.9357
▁expressing	-11.9357
▁Fleming	-11.9358
▁adjoining	-11.9358
▁confined	-11.9358
▁remarks	-11.9359
▁Arc	-11.9359
▁regained	-11.9364
▁lineage	-11.9365
▁Tong	-11.9366
▁Hyderabad	-11.9367
▁keeps	-11.937
eli	-11.937
▁Commodore	-11.9377
▁freshwater	-11.9377
▁designing	-11.938
▁relieved	-11.938
▁abbreviated	-11.9382
RO	-11.9383
▁turnout	-11.9383
▁Cherry	-11.9386
hen	-11.9387
▁trends	-11.9388
Mu	-11.9389
▁Sp	-11.939
▁Galaxy	-11.939
▁Hank	-11.9394
▁frequencies	-11.9395
▁iTunes	-11.9395
▁Zhou	-11.9396
▁unnamed	-11.9396
▁functioning	-11.9399
tail	-11.9402
▁attractions	-11.9403
▁Porto	-11.9403
▁Ole	-11.9404
▁Wil	-11.941
▁reproductive	-11.9414
▁unified	-11.9415
▁downstream	-11.9416
▁Honda	-11.9416
iri	-11.9417
▁Direct	-11.9417
▁interact	-11.9418
▁McCarthy	-11.9419
▁iconic	-11.9419
▁Oh	-11.9422
▁catalog	-11.9422
oi	-11.9422
▁Clan	-11.9424
cat	-11.9426
▁Tra	-11.9427
▁Architects	-11.9427
▁nitrogen	-11.9428
▁terrorism	-11.9429
▁ally	-11.943
▁domains	-11.9433
▁repertoire	-11.9433
▁asylum	-11.9433
▁Andhra	-11.9433
▁Hastings	-11.9434
▁foods	-11.9436
▁Rules	-11.9437
▁taxi	-11.9437
▁alter	-11.9439
▁fuselage	-11.944
▁sufficiently	-11.944
▁gaming	-11.944
▁Jung	-11.9441
ug	-11.9442
▁Hundred	-11.9442
▁Journey	-11.9443
▁fence	-11.9443
▁electorate	-11.9448
▁paternal	-11.9449
▁Xavier	-11.945
rah	-11.9451
▁Dawson	-11.9452
▁BMW	-11.9453
och	-11.9454
▁reproduction	-11.9454
▁dealer	-11.9455
ique	-11.9456
▁exam	-11.9456
▁listeners	-11.9462
▁crest	-11.9468
▁Turin	-11.9471
▁dominance	-11.9471
▁preparations	-11.9471
▁Com	-11.9472
▁steal	-11.9472
▁anthem	-11.948
▁Fun	-11.9481
▁Peterson	-11.9481
▁defining	-11.9482
through	-11.9482
▁troop	-11.9484
▁clusters	-11.9485
▁SP	-11.9486
▁Hui	-11.9488
▁recruit	-11.9488
rise	-11.9489
▁beats	-11.9489
eva	-11.9489
▁Companies	-11.9489
At	-11.949
▁classrooms	-11.9491
▁Prof	-11.9491
▁eaten	-11.9492
▁Cotton	-11.9493
▁Drug	-11.9495
gram	-11.9495
played	-11.9496
purely	-11.9498
▁disciplines	-11.9499
▁tragedy	-11.9499
▁primitive	-11.95
▁coordinates	-11.9502
▁inspection	-11.9505
▁merge	-11.9505
▁Nielsen	-11.9506
▁Lines	-11.9507
▁niece	-11.9508
▁Booth	-11.9508
▁verdict	-11.9508
▁displacement	-11.9508
▁Bright	-11.9509
Am	-11.9509
▁midnight	-11.9509
▁matched	-11.951
▁confirm	-11.9512
▁Patriots	-11.9512
▁Gustav	-11.9513
▁Bala	-11.9513
▁Tunisia	-11.9513
▁Slam	-11.9514
▁Shire	-11.9515
▁Chiefs	-11.9516
▁overnight	-11.9517
▁flooded	-11.9518
▁Lopez	-11.9518
eur	-11.9519
▁Pac	-11.9519
▁Erie	-11.952
▁Parkway	-11.952
ore	-11.9522
▁underwater	-11.9523
▁plateau	-11.9524
▁Kiss	-11.9524
▁Progress	-11.9525
▁lion	-11.9525
▁Evil	-11.9525
▁harmony	-11.9526
▁Giuseppe	-11.9527
▁heavier	-11.9527
▁Kolkata	-11.9527
▁Phillies	-11.9527
GA	-11.953
▁Mah	-11.9536
AA	-11.9537
▁Rand	-11.9538
▁heated	-11.9539
uka	-11.9539
▁Augusta	-11.9543
▁depiction	-11.9544
▁dances	-11.9545
▁momentum	-11.9546
▁Bulldogs	-11.9546
▁perennial	-11.9546
▁timing	-11.9546
▁neuro	-11.9548
▁Pod	-11.9548
▁meta	-11.9552
▁Bryant	-11.9553
▁interval	-11.9555
▁spans	-11.9556
▁branded	-11.9556
fo	-11.9557
▁sheriff	-11.9559
Ar	-11.956
▁lesbian	-11.9561
▁voter	-11.9564
▁Psychology	-11.9565
▁Dub	-11.9566
▁Bates	-11.9567
chin	-11.9568
▁executives	-11.957
▁Rise	-11.957
MA	-11.9571
▁Ling	-11.9572
themed	-11.9573
▁Net	-11.9574
▁Cro	-11.9577
▁tenants	-11.9578
▁Em	-11.9582
rick	-11.9583
▁Mau	-11.9584
▁occupies	-11.9584
▁advocates	-11.9585
▁dramatically	-11.9585
ware	-11.9586
▁cameo	-11.9587
▁handful	-11.9587
▁Cer	-11.9587
▁detachment	-11.9589
▁rented	-11.959
▁Lie	-11.9593
▁correctly	-11.9593
▁antenna	-11.9595
usually	-11.9595
én	-11.9599
▁aligned	-11.9599
nh	-11.9601
nus	-11.9602
▁keyboards	-11.9603
▁privacy	-11.9603
aux	-11.9604
▁consumed	-11.9605
▁motorway	-11.9606
ade	-11.9606
▁saves	-11.9606
▁subway	-11.9608
▁Gan	-11.9608
▁Cambodia	-11.9608
▁Cham	-11.9608
▁monster	-11.9615
▁Br	-11.9617
piece	-11.9617
qu	-11.9618
Chief	-11.962
▁rode	-11.9621
nagar	-11.9621
▁Coventry	-11.9623
▁pressed	-11.9623
▁Taiwanese	-11.9623
▁ID	-11.9623
▁judged	-11.9624
ef	-11.9626
▁Acts	-11.9627
▁metals	-11.9628
▁blast	-11.9629
▁Midlands	-11.963
▁bull	-11.963
▁divide	-11.9632
▁Gazette	-11.9635
▁curves	-11.9637
▁ranch	-11.9638
▁tenor	-11.9639
▁bitter	-11.964
▁Pierce	-11.9642
cer	-11.9643
▁Mosque	-11.9643
▁Somali	-11.9645
bat	-11.9646
▁Veterans	-11.9647
▁container	-11.9648
▁Mata	-11.965
▁Ap	-11.9651
▁commissions	-11.9652
▁Marx	-11.9656
group	-11.9659
▁bias	-11.9661
▁Color	-11.9666
▁rendering	-11.9667
▁Moor	-11.9668
standing	-11.9669
aceae	-11.9672
▁theft	-11.9672
Bo	-11.9672
adi	-11.9673
▁televised	-11.9674
▁duet	-11.9674
seven	-11.9677
▁genome	-11.9677
yama	-11.9679
▁Newark	-11.9679
fin	-11.9679
except	-11.968
▁Basic	-11.968
▁Kannada	-11.968
▁Auburn	-11.968
▁careers	-11.9682
▁prompting	-11.9682
▁determination	-11.9683
▁Omar	-11.9691
▁Sad	-11.9692
▁Countess	-11.9692
▁mere	-11.9692
▁Toyota	-11.9692
▁installations	-11.9693
shaw	-11.9694
ien	-11.9694
▁acceptable	-11.9694
▁Brock	-11.9694
▁spiral	-11.9695
▁Mercedes	-11.9697
▁Kala	-11.9697
British	-11.97
▁Bowie	-11.97
▁rope	-11.9701
▁Russians	-11.9702
▁halt	-11.9703
▁Jar	-11.9703
▁discharged	-11.9704
▁triggered	-11.9704
▁Cheng	-11.9705
▁prominently	-11.9706
▁Rally	-11.9708
▁Reformed	-11.9708
authored	-11.9709
▁Pri	-11.9711
▁Kot	-11.9711
▁physicist	-11.9712
core	-11.9714
▁aquatic	-11.9715
▁healing	-11.9718
▁Katherine	-11.9719
▁Vera	-11.9722
▁Arm	-11.9722
late	-11.9723
▁mice	-11.9725
▁Antwerp	-11.9726
▁Mickey	-11.9726
center	-11.9726
home	-11.9727
Un	-11.9728
▁Stop	-11.9728
▁homeland	-11.9731
▁Unity	-11.9732
▁compliance	-11.9733
▁ICC	-11.9733
▁compromise	-11.9734
▁lightweight	-11.9734
▁Fear	-11.9735
kon	-11.9735
▁Publications	-11.9736
any	-11.9736
▁robust	-11.9737
▁portal	-11.9737
▁statute	-11.9737
▁steadily	-11.9738
▁Administrative	-11.9739
▁concentrations	-11.9739
▁presided	-11.9739
▁Ari	-11.9741
▁Christine	-11.9741
▁thrust	-11.9741
▁weigh	-11.9741
▁riot	-11.9742
▁emerge	-11.9743
▁Bol	-11.9744
▁proportional	-11.9744
ax	-11.9744
▁contractor	-11.9748
uta	-11.9748
▁transaction	-11.975
▁undergoing	-11.9751
▁albeit	-11.9751
▁intensive	-11.9751
▁intentions	-11.9751
▁Cherokee	-11.9752
lic	-11.9752
▁Fashion	-11.9752
▁Schmidt	-11.9753
▁adapt	-11.9756
▁Reds	-11.9757
▁Shepherd	-11.9757
▁Dudley	-11.9758
▁Ned	-11.9761
vor	-11.9764
▁positively	-11.9764
▁Stuttgart	-11.9764
▁granddaughter	-11.9765
▁Valentine	-11.9765
tle	-11.9766
▁occupying	-11.9766
▁Barton	-11.9768
dor	-11.977
▁labeled	-11.977
▁Gloucester	-11.977
▁pushing	-11.9771
▁threshold	-11.9772
▁SK	-11.9773
▁strengthened	-11.9774
▁roller	-11.9775
▁kit	-11.9776
▁Waters	-11.9777
▁Venus	-11.9778
▁courtyard	-11.9782
▁Elite	-11.9785
▁Bosnian	-11.9785
zhi	-11.979
▁Lorenzo	-11.9791
▁freeway	-11.9791
▁refusal	-11.9796
▁Tehran	-11.9796
▁fixture	-11.9796
assuming	-11.9797
▁offshore	-11.9797
▁Saxony	-11.98
▁arches	-11.98
▁practicing	-11.9804
▁Marina	-11.9805
▁Bag	-11.9806
▁campuses	-11.981
ense	-11.981
▁employs	-11.9811
▁resist	-11.9812
▁Alps	-11.9815
▁spider	-11.9816
▁accepts	-11.9818
▁Chandra	-11.9819
bro	-11.982
▁Algerian	-11.9822
▁Pratt	-11.9823
▁peasants	-11.9824
▁Tro	-11.9827
ö	-11.9828
▁defenders	-11.9829
▁Flag	-11.983
vik	-11.9831
▁underway	-11.9831
▁Parsons	-11.9832
▁corners	-11.9833
link	-11.9834
▁supplement	-11.9835
▁Cunningham	-11.9835
▁excavations	-11.9835
▁folklore	-11.9835
▁deficit	-11.9836
▁modification	-11.9836
▁robbery	-11.9836
▁Performing	-11.9837
▁wives	-11.9837
mate	-11.9839
ons	-11.9839
▁lighthouse	-11.9841
▁phenomena	-11.9844
than	-11.9845
quin	-11.9847
nick	-11.9848
▁triangular	-11.9853
▁Sophie	-11.9854
▁SEC	-11.9854
▁Sinclair	-11.9855
▁Abdullah	-11.9855
▁Bronx	-11.9855
▁visitor	-11.9856
▁slogan	-11.9856
▁feast	-11.9857
▁dishes	-11.9857
▁deposit	-11.9861
▁Nothing	-11.9862
▁treasure	-11.9863
▁Hale	-11.9864
▁neural	-11.9864
ants	-11.9866
▁arise	-11.9867
▁atmospheric	-11.9867
bra	-11.9869
▁Tea	-11.9872
▁Cities	-11.9872
▁Archaeological	-11.9874
▁apparatus	-11.9874
▁Piano	-11.9875
▁Interest	-11.9875
▁warehouse	-11.9876
▁decommissioned	-11.9876
▁w	-11.9878
▁civilization	-11.9878
▁Known	-11.9879
▁accumulated	-11.988
Spanish	-11.9881
▁delays	-11.9881
ides	-11.9883
▁Organisation	-11.9885
▁hydro	-11.9885
▁creature	-11.9886
▁Leopold	-11.9886
▁nucleus	-11.9886
ps	-11.9886
▁naked	-11.9886
▁Declaration	-11.9887
▁accompany	-11.9887
▁enterprises	-11.9889
▁modeling	-11.989
▁Tate	-11.989
▁Je	-11.9892
▁Ag	-11.9893
▁evolutionary	-11.9893
▁GDP	-11.9894
▁pipeline	-11.9898
▁warriors	-11.9899
▁Beta	-11.9901
▁Ultra	-11.9903
▁explicit	-11.9903
▁Poor	-11.9904
▁continuity	-11.9906
ned	-11.9907
▁Ethiopian	-11.9908
▁Mala	-11.9908
▁Motors	-11.9909
▁tin	-11.991
▁whenever	-11.9912
▁chase	-11.9912
ip	-11.9912
▁Bert	-11.9912
▁flexible	-11.9913
▁gospel	-11.9913
elle	-11.9913
▁stomach	-11.9914
▁Casino	-11.9914
nen	-11.9919
▁habit	-11.9919
▁bark	-11.9922
▁mob	-11.9922
▁excavated	-11.9923
▁Mayo	-11.9924
▁ma	-11.9925
enburg	-11.9928
▁vault	-11.9928
mini	-11.9929
▁declare	-11.993
▁Johan	-11.9931
▁corrupt	-11.9933
ovo	-11.9934
▁Ibrahim	-11.9934
▁receptions	-11.9935
▁algorithms	-11.9935
▁chains	-11.9936
▁Rams	-11.9936
▁precisely	-11.9937
▁Willis	-11.994
▁instituted	-11.9941
▁guy	-11.9943
cap	-11.9943
▁precursor	-11.9944
lot	-11.9945
▁Marcel	-11.9945
▁Carlisle	-11.9946
wall	-11.9946
▁Duck	-11.9951
▁Monastery	-11.9953
▁Berkshire	-11.9953
▁Perkins	-11.9953
▁Congressional	-11.9954
gin	-11.9954
▁transferring	-11.9954
▁Title	-11.9955
▁drought	-11.9955
▁scenario	-11.9955
▁Shannon	-11.9956
▁tumor	-11.9956
▁destroyers	-11.9957
▁Irving	-11.9958
▁RCA	-11.9959
▁Idol	-11.996
large	-11.9961
▁chances	-11.9962
AP	-11.9964
▁Hai	-11.9965
▁Solo	-11.9966
▁Frontier	-11.9968
ible	-11.9969
pal	-11.997
▁cleaning	-11.9971
▁Jakarta	-11.9971
▁titular	-11.9973
lyn	-11.9974
▁Osaka	-11.9974
▁reorganized	-11.9974
▁sodium	-11.9975
▁Angela	-11.9975
▁rows	-11.998
published	-11.9981
▁Elisabeth	-11.9982
LA	-11.9982
▁Isabel	-11.9983
cio	-11.9984
▁laying	-11.9985
cross	-11.9986
▁repaired	-11.9987
▁sponsors	-11.9987
▁firearms	-11.9987
▁sophisticated	-11.9988
▁proud	-11.9988
▁valve	-11.9992
▁kidnapped	-11.9993
▁reunion	-11.9994
▁speculated	-11.9995
▁stained	-11.9995
▁Pond	-11.9996
▁Ultimately	-11.9996
▁injection	-11.9997
when	-12
▁coordinated	-12
▁MI	-12.0001
you	-12.0003
▁SM	-12.0005
▁attested	-12.0008
▁Haiti	-12.0009
▁Jenny	-12.0011
▁overhead	-12.0013
▁Rebellion	-12.0013
▁altogether	-12.0013
▁observers	-12.0013
▁constitute	-12.0014
▁provisional	-12.0014
▁Es	-12.0022
▁PBS	-12.0023
▁Mag	-12.0024
▁squadrons	-12.0025
▁refugee	-12.0026
▁residency	-12.0029
▁afterward	-12.0033
▁Saturn	-12.0033
▁Flanders	-12.0033
▁Beverly	-12.0034
▁treatments	-12.0034
▁Aston	-12.0035
▁Elena	-12.0035
▁Emirates	-12.0039
▁Paraguay	-12.004
▁Style	-12.0042
▁Nationalist	-12.0042
▁commands	-12.0042
matic	-12.0044
▁trigger	-12.0046
metre	-12.0052
▁mortality	-12.0053
▁Sporting	-12.0053
▁reinforcements	-12.0053
▁Pike	-12.0056
▁Glory	-12.0057
agh	-12.0057
ranking	-12.0059
▁singular	-12.0062
▁Viking	-12.0064
sea	-12.0066
▁sanctions	-12.0067
▁peers	-12.0069
▁silence	-12.0069
▁mobility	-12.007
▁polar	-12.007
▁mood	-12.0071
▁Carpenter	-12.0073
▁summary	-12.0073
▁Greeks	-12.0073
▁vowel	-12.0073
▁Midwest	-12.0074
▁organizational	-12.0074
recorded	-12.0078
▁examine	-12.008
aircraft	-12.008
▁gravel	-12.008
▁Xu	-12.0083
▁Plateau	-12.0083
▁Jacobs	-12.0083
▁Carmen	-12.0085
▁springs	-12.0085
▁Weber	-12.0086
▁genocide	-12.0087
▁faithful	-12.0087
▁bells	-12.0088
show	-12.009
PL	-12.0091
▁Hits	-12.0092
▁gambling	-12.0093
▁confronted	-12.0096
▁Barker	-12.0097
▁Close	-12.0103
▁promises	-12.0104
sub	-12.0107
▁Lands	-12.0109
Pa	-12.0111
rak	-12.0112
▁Technologies	-12.0113
▁Vanderbilt	-12.0113
▁Mare	-12.0114
▁hook	-12.0117
▁catches	-12.0117
III	-12.0117
▁Bru	-12.0118
▁wicket	-12.0121
▁Roads	-12.0122
yr	-12.0123
▁Joey	-12.0124
▁Officers	-12.0125
▁Dhaka	-12.0125
just	-12.0129
▁welcome	-12.013
▁shoes	-12.0131
▁Cameroon	-12.0132
▁Rodríguez	-12.0133
▁miniseries	-12.0133
▁bombardment	-12.0133
▁waived	-12.0133
▁unrelated	-12.0135
▁kidney	-12.0137
▁agenda	-12.0139
ama	-12.014
insky	-12.0146
▁Tibet	-12.0146
▁revision	-12.0147
▁Cut	-12.0149
▁rebuild	-12.0149
▁privileges	-12.0149
▁Away	-12.0149
▁Cara	-12.0151
▁Seventh	-12.0153
▁pitching	-12.0153
▁feat	-12.0157
▁workforce	-12.0158
▁throat	-12.0159
▁Cool	-12.016
▁Fuller	-12.0161
▁Angola	-12.0162
▁lifelong	-12.0166
▁Stoke	-12.0166
▁dental	-12.0166
▁pot	-12.0168
▁spatial	-12.0168
▁chemicals	-12.0168
▁controller	-12.0168
▁advertisements	-12.0168
▁congress	-12.0169
▁gable	-12.017
▁globally	-12.0171
▁meal	-12.0171
▁Len	-12.0173
▁spokesperson	-12.0173
▁expressions	-12.0175
▁Cannes	-12.0175
▁Rainbow	-12.0175
▁batsman	-12.0175
▁Gloria	-12.0175
▁debts	-12.0175
▁chip	-12.0176
▁fiber	-12.0177
▁progression	-12.0177
mos	-12.0178
▁Edith	-12.0178
▁Ranger	-12.0182
▁Calvin	-12.0183
▁Trent	-12.0183
▁screens	-12.0183
▁Lock	-12.0183
▁Divine	-12.0184
▁atoms	-12.0184
▁Form	-12.0185
▁Clement	-12.0188
cell	-12.0189
face	-12.0189
▁inferior	-12.019
▁rational	-12.0192
▁conventions	-12.0192
▁Detective	-12.0194
▁Randolph	-12.0194
▁Opposition	-12.0194
▁Munster	-12.0194
▁FIBA	-12.0194
▁bullet	-12.0195
▁Wheeler	-12.0197
▁steals	-12.0198
▁simulation	-12.0198
▁Primera	-12.0199
▁Bis	-12.0201
▁Kun	-12.0202
yne	-12.0205
▁happening	-12.0207
▁fierce	-12.0208
▁pedestrian	-12.0208
▁recall	-12.0209
▁smoking	-12.021
▁Gore	-12.0211
▁Dec	-12.0213
▁Tracy	-12.0214
▁submerged	-12.0214
▁Isabella	-12.0215
ido	-12.0215
▁Phantom	-12.0215
▁prospect	-12.0216
▁Often	-12.0216
▁additionally	-12.0218
▁ancestral	-12.0219
gh	-12.0219
▁Teachers	-12.0219
ges	-12.0221
▁chancellor	-12.0223
▁Fitzgerald	-12.0224
▁robot	-12.0224
uch	-12.0228
▁migrants	-12.0228
▁Brett	-12.0229
▁Tonight	-12.0231
▁sings	-12.0232
▁odds	-12.0232
▁UC	-12.0234
▁Anniversary	-12.0234
▁excellence	-12.0234
▁demise	-12.0234
▁Conway	-12.0235
▁transcription	-12.0239
▁Episode	-12.024
▁exiled	-12.0241
▁Brady	-12.0241
▁pistol	-12.0243
▁arrange	-12.0246
▁intimate	-12.0246
▁deadline	-12.0247
▁marginal	-12.0247
▁retrospective	-12.0252
▁wholly	-12.0252
SS	-12.0255
▁dismissal	-12.0256
lum	-12.0256
▁violated	-12.0257
▁shooter	-12.0257
▁Az	-12.0258
grossing	-12.0259
▁Yong	-12.0264
▁fulfill	-12.0264
▁Rep	-12.0265
▁derivative	-12.0266
▁circa	-12.0268
▁shortage	-12.0268
▁Icelandic	-12.0268
▁portray	-12.0269
▁Browns	-12.0271
▁wagon	-12.0272
anna	-12.0272
▁throws	-12.0272
uz	-12.0273
Japanese	-12.0274
▁Mk	-12.0275
▁satisfied	-12.0275
▁Universities	-12.0275
tia	-12.0275
▁Sta	-12.0276
▁rejection	-12.0276
▁Kali	-12.0276
▁graves	-12.0276
▁reconstructed	-12.0277
▁podium	-12.0279
▁debates	-12.0281
▁descriptions	-12.0281
▁spirits	-12.0281
▁Ve	-12.0282
▁regulate	-12.0283
hood	-12.0285
▁Bra	-12.0285
▁Return	-12.0286
▁exploitation	-12.0286
▁retreated	-12.0286
▁limiting	-12.029
▁Ace	-12.0292
▁integrate	-12.0292
▁clip	-12.0293
▁Salisbury	-12.0295
▁concluding	-12.0295
▁Analysis	-12.0295
▁Resolution	-12.0295
▁Travis	-12.0297
▁exceeded	-12.0299
▁beta	-12.03
▁amid	-12.0301
▁Bei	-12.0302
force	-12.0307
▁Spin	-12.0308
▁Mae	-12.0308
▁Barr	-12.0309
▁slate	-12.0313
▁suffrage	-12.0316
▁anxiety	-12.0316
▁Dundee	-12.0316
▁Fischer	-12.0317
▁Catalonia	-12.0324
▁somewhere	-12.0327
▁broadly	-12.0327
▁Wanderers	-12.0328
▁marker	-12.0329
▁poetic	-12.0329
▁captained	-12.0329
▁vacuum	-12.033
▁Macedonian	-12.0331
▁comply	-12.0331
▁Ant	-12.0331
▁Individual	-12.0334
▁Jubilee	-12.0336
▁dioxide	-12.0337
▁Christchurch	-12.0337
▁surpassed	-12.0338
especially	-12.0338
▁Zhao	-12.0343
▁reigning	-12.0343
▁constituent	-12.0343
▁Ly	-12.0346
▁forbidden	-12.0346
▁painters	-12.0346
▁Brain	-12.0346
▁electrons	-12.0346
▁sheets	-12.0347
▁planets	-12.0347
▁Josef	-12.035
▁cure	-12.0351
▁Standing	-12.0351
▁partnerships	-12.0351
purpose	-12.0354
▁fortifications	-12.0355
bot	-12.0357
▁bottle	-12.0357
oo	-12.0358
▁Ay	-12.0358
▁coordinate	-12.0359
▁inserted	-12.0359
Da	-12.036
▁governors	-12.0363
▁exported	-12.0365
▁Seymour	-12.0367
▁schooling	-12.0368
▁Kuwait	-12.0368
las	-12.0368
▁flora	-12.0373
garde	-12.0375
▁Reservoir	-12.0378
▁victorious	-12.0378
▁Omaha	-12.0378
▁Hague	-12.0378
ille	-12.0379
London	-12.038
▁pond	-12.0383
▁MLS	-12.0383
▁peaks	-12.0385
nin	-12.0387
▁vein	-12.0388
▁Dresden	-12.0391
▁Amanda	-12.0392
▁realistic	-12.0394
▁IP	-12.0394
▁theological	-12.0395
▁Rat	-12.0395
▁Bed	-12.0397
▁hierarchy	-12.0399
lle	-12.0399
▁SE	-12.0399
▁Dorset	-12.04
▁Monster	-12.0402
That	-12.0402
ves	-12.0402
▁notation	-12.0404
▁Beautiful	-12.0405
▁orbital	-12.0405
▁feminine	-12.0407
▁Aid	-12.0409
▁René	-12.0409
▁licensing	-12.0409
▁speeches	-12.041
▁Jing	-12.0413
▁predators	-12.0413
▁summers	-12.0415
used	-12.0416
▁adverse	-12.0416
▁Myers	-12.0417
▁Doyle	-12.0418
▁spokesman	-12.0419
▁originating	-12.042
▁staging	-12.042
▁Dodge	-12.042
▁globe	-12.0422
▁relates	-12.0422
▁commercials	-12.0424
▁Latvian	-12.0424
▁Kos	-12.0428
▁funny	-12.0429
▁Gui	-12.0429
▁pastoral	-12.043
▁Corner	-12.043
▁Rapid	-12.043
bor	-12.0432
▁Cheshire	-12.0433
▁ultra	-12.0434
▁Vikings	-12.0434
▁button	-12.0435
▁capped	-12.0437
Autonomous	-12.044
ther	-12.0441
▁Buchanan	-12.0441
▁Dunn	-12.0441
▁bare	-12.0441
▁inscribed	-12.0442
▁Carlton	-12.0444
▁oppose	-12.0444
highest	-12.0445
▁accurately	-12.0446
▁Hours	-12.0447
▁granting	-12.0447
▁Encyclopedia	-12.0448
▁mural	-12.0448
▁Sophia	-12.0451
▁Williamson	-12.0454
ato	-12.0456
▁Somalia	-12.0456
▁Wine	-12.0456
▁postal	-12.0457
▁targeting	-12.0458
▁immigrate	-12.0461
▁Taipei	-12.0461
▁associates	-12.0461
▁Harlem	-12.0464
▁Shell	-12.0464
▁crossover	-12.0464
▁genuine	-12.0464
▁jaw	-12.0465
▁Tau	-12.0467
▁DS	-12.0468
▁Murder	-12.0469
▁appeals	-12.0472
▁retrieve	-12.0478
CR	-12.0478
▁tallest	-12.0479
evich	-12.0481
▁archbishop	-12.0481
▁coordination	-12.0482
mid	-12.0482
▁automated	-12.0482
▁Admiralty	-12.0482
▁holidays	-12.0484
▁experiencing	-12.0485
dio	-12.0489
▁exports	-12.049
▁Hy	-12.0491
▁Olivia	-12.0493
▁invest	-12.0494
▁forum	-12.0496
▁angles	-12.0498
▁Lives	-12.0499
▁constraints	-12.0499
America	-12.0499
▁suffix	-12.05
building	-12.05
▁viewer	-12.05
▁Lance	-12.0501
▁abolition	-12.0501
rod	-12.0501
▁Crow	-12.0502
▁hate	-12.0502
▁philanthropist	-12.0502
▁Talbot	-12.0504
▁comprise	-12.0508
▁curator	-12.0509
cylinder	-12.0509
▁burnt	-12.0509
▁climbed	-12.0509
originally	-12.051
▁inform	-12.0513
▁posed	-12.0514
▁Sk	-12.0515
sz	-12.0516
▁chambers	-12.0516
▁modeled	-12.0519
▁Mis	-12.0519
▁outright	-12.0519
borough	-12.052
▁anterior	-12.052
▁Better	-12.0521
▁Fritz	-12.0527
▁fined	-12.0527
▁drops	-12.0528
▁orchestral	-12.0528
▁colonists	-12.0532
Neill	-12.0534
▁Diane	-12.0534
▁eighteenth	-12.0535
▁Beau	-12.0539
▁Alt	-12.054
▁imprint	-12.054
▁Tale	-12.0542
God	-12.0543
▁uranium	-12.0544
▁Noel	-12.0546
▁Andre	-12.0548
▁Abbott	-12.0551
▁dragon	-12.0552
Ne	-12.0552
▁Vo	-12.0552
▁investor	-12.0555
▁skiing	-12.0557
▁implications	-12.0559
▁chancel	-12.056
▁Busch	-12.056
▁Period	-12.0561
▁confrontation	-12.0562
▁Associates	-12.0563
▁geological	-12.0563
▁Lowe	-12.0564
▁Levi	-12.0565
▁Relief	-12.0565
▁Smithsonian	-12.0565
▁Suzuki	-12.0565
▁syndicated	-12.0567
▁passive	-12.0569
▁Donna	-12.0569
▁Bla	-12.057
cin	-12.0573
▁Rivera	-12.0575
▁Manning	-12.0575
▁biblical	-12.058
▁Sunderland	-12.0586
▁transactions	-12.0587
▁plains	-12.0587
▁deported	-12.0587
▁Hogan	-12.0587
▁summoned	-12.0587
uro	-12.0588
▁Quartet	-12.0588
▁entirety	-12.059
▁inflation	-12.0591
▁Vista	-12.0591
▁Choir	-12.0593
▁lowered	-12.0593
▁facial	-12.0594
▁mascot	-12.0596
▁Version	-12.0596
▁icon	-12.0599
▁inadequate	-12.06
▁maker	-12.0603
▁Rahman	-12.0605
▁Qa	-12.0606
▁Mikhail	-12.0607
▁Whilst	-12.0607
▁constellation	-12.0607
▁Pioneer	-12.0608
▁dispatched	-12.0609
▁Greenland	-12.0609
▁Pool	-12.0611
▁flags	-12.0612
▁Dome	-12.0613
PC	-12.0614
▁ka	-12.0615
▁oath	-12.0617
▁Broncos	-12.0618
▁cottage	-12.0618
▁Indeed	-12.0622
▁cycles	-12.0622
sport	-12.0624
aki	-12.0624
▁tiles	-12.0625
▁Kurdish	-12.0626
▁surveyed	-12.0626
▁rides	-12.0628
▁Karachi	-12.0629
▁Own	-12.063
▁Alfonso	-12.0631
▁Bro	-12.0634
▁Twins	-12.0634
▁reporters	-12.0637
▁rebuilding	-12.0638
race	-12.064
▁Abe	-12.064
mmer	-12.0642
▁Eyes	-12.0642
▁comfort	-12.0647
▁Tha	-12.0647
▁concentrate	-12.0647
▁blockade	-12.0649
▁Pas	-12.0649
▁Ark	-12.0649
▁intra	-12.0651
▁stuck	-12.0651
IP	-12.0651
▁sparked	-12.0653
▁unanimously	-12.0653
▁attitudes	-12.0653
▁Beauty	-12.0656
▁insight	-12.0657
▁Restoration	-12.0658
▁rod	-12.0658
▁Lac	-12.0659
▁Chamberlain	-12.066
▁courage	-12.066
▁physicians	-12.0661
tron	-12.0661
▁Than	-12.0663
▁rental	-12.0663
▁hire	-12.0664
▁Normal	-12.0664
Po	-12.0666
▁memorable	-12.0668
▁Lahore	-12.0671
▁Species	-12.0671
▁León	-12.0672
▁songwriting	-12.0673
NFL	-12.0673
▁photographic	-12.0674
▁Hua	-12.0675
Mr	-12.0676
▁teenagers	-12.0676
▁talents	-12.0676
▁recognizes	-12.0676
▁defeats	-12.0678
▁Kel	-12.068
▁cellular	-12.0681
▁villain	-12.0682
chy	-12.0682
▁Sister	-12.0682
▁renewable	-12.0684
▁specification	-12.0686
▁compression	-12.0686
▁supreme	-12.0687
▁Tracks	-12.0688
▁uncertainty	-12.0693
▁Biology	-12.0693
▁Hence	-12.0694
!,	-12.0695
das	-12.0695
▁halted	-12.0697
▁metric	-12.0699
service	-12.07
lap	-12.07
▁Cass	-12.0701
▁stamps	-12.0701
▁Jerome	-12.0703
▁Riverside	-12.0705
▁Sikh	-12.0705
▁Qi	-12.0706
▁slower	-12.0707
▁nationality	-12.071
▁Pot	-12.071
▁processor	-12.071
▁unprecedented	-12.0712
▁Austro	-12.0718
▁enforce	-12.072
▁filmmakers	-12.072
▁Poles	-12.0725
▁implementing	-12.0726
▁brewery	-12.0727
Saxon	-12.0728
▁static	-12.0728
▁Jules	-12.073
▁molecule	-12.0731
▁permits	-12.0731
▁Belarusian	-12.0732
▁suite	-12.0732
▁Teams	-12.0733
▁Rita	-12.0734
▁Harriet	-12.0734
kara	-12.0736
▁locate	-12.0737
▁Governorate	-12.0739
ologist	-12.0739
▁shocked	-12.0741
▁outlet	-12.0742
▁Canon	-12.0743
▁showcase	-12.0745
orum	-12.0746
▁cubic	-12.0746
▁Investigation	-12.0746
▁loading	-12.0748
DF	-12.0748
▁neighbors	-12.075
ū	-12.0753
▁posterior	-12.0754
▁sanctioned	-12.0755
▁für	-12.0755
▁underneath	-12.0756
▁Pérez	-12.0756
▁wheelchair	-12.0756
▁disappearance	-12.0756
▁Wake	-12.0758
▁diary	-12.0758
▁banker	-12.0759
▁Frost	-12.0759
uni	-12.076
umerous	-12.076
▁Proto	-12.0763
▁Turn	-12.0766
▁storms	-12.0767
▁semifinal	-12.077
▁cliff	-12.0772
▁Elliot	-12.0773
[...]
